{
  "version": "1.0",
  "truncation": null,
  "padding": null,
  "added_tokens": [
    {
      "id": 0,
      "content": "<|endoftext|>",
      "single_word": false,
      "lstrip": false,
      "rstrip": false,
      "normalized": false,
      "special": true
    },
    {
      "id": 1,
      "content": "<|pad|>",
      "single_word": false,
      "lstrip": false,
      "rstrip": false,
      "normalized": false,
      "special": true
    },
    {
      "id": 2,
      "content": "<human>",
      "single_word": false,
      "lstrip": false,
      "rstrip": false,
      "normalized": false,
      "special": true
    },
    {
      "id": 3,
      "content": "<victorian>",
      "single_word": false,
      "lstrip": false,
      "rstrip": false,
      "normalized": false,
      "special": true
    }
  ],
  "normalizer": null,
  "pre_tokenizer": {
    "type": "ByteLevel",
    "add_prefix_space": false,
    "trim_offsets": true,
    "use_regex": true
  },
  "post_processor": null,
  "decoder": {
    "type": "ByteLevel",
    "add_prefix_space": true,
    "trim_offsets": true,
    "use_regex": true
  },
  "model": {
    "type": "BPE",
    "dropout": null,
    "unk_token": null,
    "continuing_subword_prefix": null,
    "end_of_word_suffix": null,
    "fuse_unk": false,
    "byte_fallback": false,
    "ignore_merges": false,
    "vocab": {
      "<|endoftext|>": 0,
      "<|pad|>": 1,
      "<human>": 2,
      "<victorian>": 3,
      "!": 4,
      "\"": 5,
      "#": 6,
      "$": 7,
      "%": 8,
      "&": 9,
      "'": 10,
      "(": 11,
      ")": 12,
      "*": 13,
      "+": 14,
      ",": 15,
      "-": 16,
      ".": 17,
      "/": 18,
      "0": 19,
      "1": 20,
      "2": 21,
      "3": 22,
      "4": 23,
      "5": 24,
      "6": 25,
      "7": 26,
      "8": 27,
      "9": 28,
      ":": 29,
      ";": 30,
      "<": 31,
      "=": 32,
      ">": 33,
      "?": 34,
      "@": 35,
      "A": 36,
      "B": 37,
      "C": 38,
      "D": 39,
      "E": 40,
      "F": 41,
      "G": 42,
      "H": 43,
      "I": 44,
      "J": 45,
      "K": 46,
      "L": 47,
      "M": 48,
      "N": 49,
      "O": 50,
      "P": 51,
      "Q": 52,
      "R": 53,
      "S": 54,
      "T": 55,
      "U": 56,
      "V": 57,
      "W": 58,
      "X": 59,
      "Y": 60,
      "Z": 61,
      "[": 62,
      "\\": 63,
      "]": 64,
      "^": 65,
      "_": 66,
      "a": 67,
      "b": 68,
      "c": 69,
      "d": 70,
      "e": 71,
      "f": 72,
      "g": 73,
      "h": 74,
      "i": 75,
      "j": 76,
      "k": 77,
      "l": 78,
      "m": 79,
      "n": 80,
      "o": 81,
      "p": 82,
      "q": 83,
      "r": 84,
      "s": 85,
      "t": 86,
      "u": 87,
      "v": 88,
      "w": 89,
      "x": 90,
      "y": 91,
      "z": 92,
      "{": 93,
      "|": 94,
      "}": 95,
      "~": 96,
      "¡": 97,
      "¢": 98,
      "£": 99,
      "¤": 100,
      "¥": 101,
      "¦": 102,
      "§": 103,
      "¨": 104,
      "©": 105,
      "ª": 106,
      "«": 107,
      "¬": 108,
      "®": 109,
      "¯": 110,
      "°": 111,
      "±": 112,
      "²": 113,
      "³": 114,
      "´": 115,
      "µ": 116,
      "¶": 117,
      "·": 118,
      "¸": 119,
      "¹": 120,
      "º": 121,
      "»": 122,
      "¼": 123,
      "½": 124,
      "¾": 125,
      "¿": 126,
      "Â": 127,
      "Ã": 128,
      "Ä": 129,
      "Å": 130,
      "Î": 131,
      "Ï": 132,
      "Ð": 133,
      "Ñ": 134,
      "à": 135,
      "â": 136,
      "ï": 137,
      "Ċ": 138,
      "Ġ": 139,
      "Ģ": 140,
      "ģ": 141,
      "Ĥ": 142,
      "ĥ": 143,
      "Ħ": 144,
      "ħ": 145,
      "Ĩ": 146,
      "ĩ": 147,
      "Ī": 148,
      "ī": 149,
      "Ĭ": 150,
      "ĭ": 151,
      "Į": 152,
      "į": 153,
      "İ": 154,
      "ı": 155,
      "Ĳ": 156,
      "ĳ": 157,
      "Ĵ": 158,
      "ĵ": 159,
      "Ķ": 160,
      "ķ": 161,
      "ĸ": 162,
      "Ĺ": 163,
      "ĺ": 164,
      "Ļ": 165,
      "ļ": 166,
      "Ľ": 167,
      "ľ": 168,
      "Ŀ": 169,
      "ŀ": 170,
      "Ł": 171,
      "ł": 172,
      "Ń": 173,
      "Ġt": 174,
      "he": 175,
      "Ġa": 176,
      "Ġthe": 177,
      "in": 178,
      "Ġo": 179,
      "re": 180,
      "Ġs": 181,
      "Ġw": 182,
      "nd": 183,
      "er": 184,
      "Ġof": 185,
      "Ġb": 186,
      "on": 187,
      "is": 188,
      "ed": 189,
      "en": 190,
      "ha": 191,
      "ou": 192,
      "Ġf": 193,
      "Ġc": 194,
      "it": 195,
      "Ġm": 196,
      "Ġand": 197,
      "es": 198,
      "or": 199,
      "Ġp": 200,
      "Ġto": 201,
      "ar": 202,
      "ing": 203,
      "Ġin": 204,
      "Ġd": 205,
      "at": 206,
      "an": 207,
      "ll": 208,
      "as": 209,
      "Ġl": 210,
      "Ġh": 211,
      "Ġn": 212,
      "om": 213,
      "ic": 214,
      "Ġhe": 215,
      "Ġha": 216,
      "le": 217,
      "ĠI": 218,
      "Ġbe": 219,
      "ĠT": 220,
      "Ġe": 221,
      "Ġg": 222,
      "ion": 223,
      "ent": 224,
      "st": 225,
      "al": 226,
      "ot": 227,
      "ve": 228,
      "ĠA": 229,
      "Ġre": 230,
      "ow": 231,
      "ly": 232,
      "ut": 233,
      "hat": 234,
      "se": 235,
      "ce": 236,
      "Ġth": 237,
      "ĠS": 238,
      "id": 239,
      "ld": 240,
      "im": 241,
      "ur": 242,
      "Ġon": 243,
      "Ġwas": 244,
      "ir": 245,
      "gh": 246,
      "Ġwh": 247,
      "ver": 248,
      "et": 249,
      "Ġfor": 250,
      "ĠC": 251,
      "ith": 252,
      "Ġthat": 253,
      "ĠM": 254,
      "ro": 255,
      "Ġu": 256,
      "Ġit": 257,
      "ay": 258,
      "Ġ\"": 259,
      "Ġy": 260,
      "Ġas": 261,
      "Ġis": 262,
      "ad": 263,
      "Ġwith": 264,
      "ri": 265,
      "Ġwe": 266,
      "ct": 267,
      "ĠThe": 268,
      "am": 269,
      "Ġst": 270,
      "ĠH": 271,
      "Ġhis": 272,
      "ch": 273,
      "Ġ;": 274,
      "ĠB": 275,
      "Ġ1": 276,
      "Ġat": 277,
      "ter": 278,
      "ra": 279,
      "Ġan": 280,
      "her": 281,
      "il": 282,
      "ĠW": 283,
      "Ġby": 284,
      "ght": 285,
      "ill": 286,
      "ich": 287,
      "Ġnot": 288,
      "ain": 289,
      "âĢ": 290,
      "ĠP": 291,
      "Ġyou": 292,
      "Ġse": 293,
      "Ġhad": 294,
      "Ġsu": 295,
      "rom": 296,
      "âĢĶ": 297,
      "th": 298,
      "Ġde": 299,
      "oo": 300,
      "ge": 301,
      "red": 302,
      "if": 303,
      "Ġwhich": 304,
      "and": 305,
      "ĠL": 306,
      "Ġcon": 307,
      "ĠâĢĶ": 308,
      "ess": 309,
      "ould": 310,
      "all": 311,
      "Ġv": 312,
      "ul": 313,
      "pe": 314,
      "Ġher": 315,
      "ke": 316,
      "Ġfrom": 317,
      "ore": 318,
      "qu": 319,
      "ĠE": 320,
      "nt": 321,
      "ĠG": 322,
      "est": 323,
      "'s": 324,
      "Ġor": 325,
      "ĠD": 326,
      "ation": 327,
      "us": 328,
      "Ġso": 329,
      "ĠF": 330,
      "res": 331,
      "ac": 332,
      "ĠO": 333,
      "Ġex": 334,
      "Ġme": 335,
      "ĠR": 336,
      "ers": 337,
      "Ġhave": 338,
      "Ġbut": 339,
      "ĠN": 340,
      "ol": 341,
      "ant": 342,
      "Ġcom": 343,
      "Ġne": 344,
      "Ġwere": 345,
      "our": 346,
      "ab": 347,
      "ous": 348,
      "Ġr": 349,
      "os": 350,
      "ie": 351,
      "ist": 352,
      "ard": 353,
      "Ġthis": 354,
      "Ġare": 355,
      "Ġhim": 356,
      "ight": 357,
      "Ġall": 358,
      "ate": 359,
      "pp": 360,
      "art": 361,
      "ĠJ": 362,
      "Ġsh": 363,
      "um": 364,
      "ast": 365,
      "em": 366,
      "Ġtheir": 367,
      "Ġk": 368,
      "el": 369,
      "Ġwhe": 370,
      "Ġsa": 371,
      "Ġwho": 372,
      "ome": 373,
      "Ġup": 374,
      "Ġshe": 375,
      "ort": 376,
      "Ġthey": 377,
      "ong": 378,
      "Ġal": 379,
      "ig": 380,
      "Ġpro": 381,
      "Ġ'": 382,
      "ust": 383,
      "iv": 384,
      "ound": 385,
      "Ġab": 386,
      "Ġone": 387,
      "Ġ2": 388,
      "Ġman": 389,
      "pt": 390,
      "Ġmy": 391,
      "un": 392,
      "out": 393,
      "very": 394,
      "ive": 395,
      "Ġint": 396,
      "Ġbeen": 397,
      "ame": 398,
      "ies": 399,
      "Ġfe": 400,
      "han": 401,
      "Ġle": 402,
      ".\"": 403,
      "ry": 404,
      "ost": 405,
      "ity": 406,
      "Ġthem": 407,
      "Ġno": 408,
      "ood": 409,
      "ind": 410,
      "ord": 411,
      "ough": 412,
      "ak": 413,
      "op": 414,
      "Ġpl": 415,
      "ish": 416,
      "reat": 417,
      "ount": 418,
      "Ġdo": 419,
      "ck": 420,
      "cc": 421,
      "Ġar": 422,
      "ure": 423,
      "Ġthere": 424,
      "own": 425,
      "ther": 426,
      "ĠHe": 427,
      "lf": 428,
      "od": 429,
      "ff": 430,
      "ect": 431,
      "Ġ!": 432,
      "ment": 433,
      "one": 434,
      "ag": 435,
      "ine": 436,
      "ass": 437,
      "Ġ18": 438,
      "Ġun": 439,
      "Ġwould": 440,
      "ide": 441,
      "ance": 442,
      "av": 443,
      ",\"": 444,
      "itt": 445,
      "Ġqu": 446,
      "hed": 447,
      "ace": 448,
      "ĠIt": 449,
      "ud": 450,
      "ond": 451,
      "Ġro": 452,
      "Ġsaid": 453,
      "ose": 454,
      "Ġen": 455,
      "Ġj": 456,
      "able": 457,
      "ci": 458,
      "ber": 459,
      "Ġout": 460,
      "Ġkn": 461,
      "wn": 462,
      "ng": 463,
      "Ġsome": 464,
      "Ġtim": 465,
      "Ġag": 466,
      "Ġwhen": 467,
      "Ġad": 468,
      "ence": 469,
      "Ġsp": 470,
      "Ġmore": 471,
      "Ġtw": 472,
      "ĠMr": 473,
      "ĠSt": 474,
      "Ġcl": 475,
      "ars": 476,
      "Ġch": 477,
      "ary": 478,
      "ice": 479,
      "ated": 480,
      "Ġother": 481,
      "Ġ?": 482,
      "end": 483,
      "Ġits": 484,
      "Ġhas": 485,
      "ell": 486,
      "Ġim": 487,
      "ĠTh": 488,
      "Ġ3": 489,
      "Ġdis": 490,
      "age": 491,
      "Ġwill": 492,
      "Ġam": 493,
      "au": 494,
      "ire": 495,
      "Ġ.": 496,
      "Ġ(": 497,
      "per": 498,
      "are": 499,
      "ove": 500,
      "ĠK": 501,
      "ree": 502,
      "Ġli": 503,
      "ade": 504,
      "ite": 505,
      "ook": 506,
      "ru": 507,
      "Ġinto": 508,
      "fter": 509,
      "ĠIn": 510,
      "ions": 511,
      "ven": 512,
      "Ġpart": 513,
      "Ġwor": 514,
      "Ġper": 515,
      "Ġvery": 516,
      "ĠV": 517,
      "ans": 518,
      "ake": 519,
      "ally": 520,
      "Ġthan": 521,
      "ep": 522,
      "urn": 523,
      "Ġye": 524,
      "ack": 525,
      "Ġgreat": 526,
      "Ġany": 527,
      "Ġgo": 528,
      "Ġour": 529,
      "Ġus": 530,
      "Ġtime": 531,
      "pl": 532,
      "Ġif": 533,
      "self": 534,
      "land": 535,
      "Ġcan": 536,
      "Ġbr": 537,
      "Ġpr": 538,
      "ved": 539,
      "ied": 540,
      "ap": 541,
      "ble": 542,
      "Ġpre": 543,
      "Ġabout": 544,
      "ress": 545,
      "Ġ:": 546,
      "Ġgr": 547,
      "Ġupon": 548,
      "nder": 549,
      "ĠY": 550,
      "fore": 551,
      "Ġcould": 552,
      "Ġsha": 553,
      "Ġnow": 554,
      "ile": 555,
      "ered": 556,
      "ĠAnd": 557,
      "Ġday": 558,
      "ward": 559,
      "HE": 560,
      "Ġco": 561,
      "ings": 562,
      "Ġoff": 563,
      "ious": 564,
      "Ġcha": 565,
      "ty": 566,
      "00": 567,
      "Ġafter": 568,
      "Ġri": 569,
      "ach": 570,
      "orn": 571,
      "Ġpe": 572,
      "Ġover": 573,
      "ia": 574,
      "Ġres": 575,
      "Ġtr": 576,
      "Ġonly": 577,
      "ild": 578,
      "ark": 579,
      "tain": 580,
      "Ġthen": 581,
      "ought": 582,
      "Ġtwo": 583,
      "Ġwhat": 584,
      "Ġfl": 585,
      "way": 586,
      "Ġrem": 587,
      "bl": 588,
      "cl": 589,
      "Ġbl": 590,
      "Ġpo": 591,
      "ip": 592,
      "oy": 593,
      "Ġfir": 594,
      "ere": 595,
      "Ġdes": 596,
      "other": 597,
      "int": 598,
      "ĠAv": 599,
      ".,": 600,
      "ĠBut": 601,
      "Ġyour": 602,
      "uch": 603,
      "ath": 604,
      "Ġmade": 605,
      "iss": 606,
      "ittle": 607,
      "Ġthr": 608,
      "ne": 609,
      "Ġcomm": 610,
      "ue": 611,
      "Ġra": 612,
      "ick": 613,
      "Ġagain": 614,
      "ather": 615,
      "Ġ4": 616,
      "ign": 617,
      "Ġshould": 618,
      "Ġunder": 619,
      "oll": 620,
      "ian": 621,
      "ons": 622,
      "ife": 623,
      "Ġtoo": 624,
      "Ġcount": 625,
      "we": 626,
      "Ġthese": 627,
      "Ġmay": 628,
      "Ġlittle": 629,
      "Ġwhere": 630,
      "ull": 631,
      "Ġsc": 632,
      "Ġlike": 633,
      "Ġfa": 634,
      "Ġfirst": 635,
      "ful": 636,
      "ces": 637,
      "Ġlong": 638,
      "Ġsuch": 639,
      "Ġmost": 640,
      "Ġhand": 641,
      "Ġbet": 642,
      "ran": 643,
      "ft": 644,
      "Ġbefore": 645,
      "Ġbeing": 646,
      "Ġcons": 647,
      "Ġcont": 648,
      "ition": 649,
      "Ġpres": 650,
      "ory": 651,
      "Ġacc": 652,
      "ink": 653,
      "Ġgood": 654,
      "Ġcomp": 655,
      "Ġdid": 656,
      "Ġmuch": 657,
      "ener": 658,
      "oss": 659,
      "ise": 660,
      "ouse": 661,
      "Ġsee": 662,
      "Ġsm": 663,
      "Ġhow": 664,
      "Ġform": 665,
      "ens": 666,
      "ER": 667,
      "Ġlook": 668,
      "hing": 669,
      "ater": 670,
      "ict": 671,
      "Ġob": 672,
      "Ġold": 673,
      "Ġent": 674,
      "ew": 675,
      "Ġpass": 676,
      "Ġatt": 677,
      "Ġsay": 678,
      "igh": 679,
      "iz": 680,
      "ness": 681,
      "Ġimp": 682,
      "Ġspe": 683,
      "ĠCh": 684,
      "Ġdist": 685,
      "ced": 686,
      "Ġmen": 687,
      "Ġind": 688,
      "ving": 689,
      "ren": 690,
      "ors": 691,
      "Ġknow": 692,
      "Ġmust": 693,
      "ady": 694,
      "Ġevery": 695,
      "Ġap": 696,
      "Ġwell": 697,
      "ction": 698,
      "ily": 699,
      "Ġown": 700,
      "ĠU": 701,
      "Ġ5": 702,
      "hes": 703,
      "so": 704,
      "ĠTHE": 705,
      "ult": 706,
      "Ġapp": 707,
      "man": 708,
      "Ġthrough": 709,
      "Ġdown": 710,
      "Ġfound": 711,
      "og": 712,
      "ations": 713,
      "hen": 714,
      "'t": 715,
      "les": 716,
      "Ġmany": 717,
      "ave": 718,
      "ps": 719,
      "Ġthose": 720,
      "Ġeven": 721,
      "ks": 722,
      "ĠJo": 723,
      "Ġ6": 724,
      "ĠEng": 725,
      "Ġser": 726,
      "oth": 727,
      "iff": 728,
      "ON": 729,
      "Ġgl": 730,
      "Ġnever": 731,
      "arly": 732,
      "Ġhere": 733,
      "ĠShe": 734,
      "Ġ17": 735,
      "te": 736,
      "Ġbec": 737,
      "ock": 738,
      "Ġac": 739,
      "ried": 740,
      "ĠOF": 741,
      "be": 742,
      "old": 743,
      "Ġyears": 744,
      "Ġrep": 745,
      "rit": 746,
      "Ġland": 747,
      "Ġsame": 748,
      "led": 749,
      "ix": 750,
      "ract": 751,
      "ĠThis": 752,
      "Ġret": 753,
      "Ġway": 754,
      "Ġcall": 755,
      "Ġsub": 756,
      "Ġmight": 757,
      "Ġfar": 758,
      "Ġmar": 759,
      "ever": 760,
      "hn": 761,
      "und": 762,
      "AN": 763,
      "ents": 764,
      "Ġem": 765,
      "Ġext": 766,
      "ves": 767,
      "outh": 768,
      "Ġla": 769,
      "Ġplace": 770,
      "Ġmil": 771,
      "Ġcame": 772,
      "Ġbel": 773,
      "ton": 774,
      "Ġsl": 775,
      "pect": 776,
      "Ġ8": 777,
      "orth": 778,
      "sel": 779,
      "ang": 780,
      "Ġseem": 781,
      "orm": 782,
      "ished": 783,
      "ical": 784,
      "Ġop": 785,
      "ĠJohn": 786,
      "Ġtown": 787,
      "Ġcar": 788,
      "Ġreg": 789,
      "Ġocc": 790,
      "ates": 791,
      "har": 792,
      "OR": 793,
      "ople": 794,
      "ower": 795,
      "ĠAs": 796,
      "Ġlast": 797,
      "..": 798,
      "Ġrec": 799,
      "ial": 800,
      "ĠWe": 801,
      "Ġappe": 802,
      "Ġsur": 803,
      "atter": 804,
      "Ġfri": 805,
      "Ġset": 806,
      "Ġthink": 807,
      "Ġalso": 808,
      "Ġstre": 809,
      "ĠThere": 810,
      "ject": 811,
      "Ġlar": 812,
      ".'": 813,
      "ited": 814,
      "ase": 815,
      "ĠSe": 816,
      "Ġshall": 817,
      "Ġnat": 818,
      "Ġcour": 819,
      "li": 820,
      "ont": 821,
      "Ġlife": 822,
      "Ġarm": 823,
      "ined": 824,
      "Ġsupp": 825,
      "ollow": 826,
      "ince": 827,
      "Ġthought": 828,
      "IN": 829,
      "ĠThey": 830,
      "ged": 831,
      "Ġthree": 832,
      "Ġord": 833,
      "Ġstill": 834,
      "Ġi": 835,
      "Ġlo": 836,
      "Ġcome": 837,
      "Ġtak": 838,
      "Ġey": 839,
      "Ġhimself": 840,
      "ared": 841,
      "Ġpeople": 842,
      "Ġtra": 843,
      "Ġbu": 844,
      "Ġlet": 845,
      "ĠAt": 846,
      "ss": 847,
      "ked": 848,
      "ently": 849,
      "mer": 850,
      "Ġinf": 851,
      "Ġend": 852,
      "Ġke": 853,
      "Ġcountry": 854,
      "Ġgra": 855,
      "ope": 856,
      "Ġhar": 857,
      "less": 858,
      "ween": 859,
      "ins": 860,
      "ES": 861,
      "Ġhead": 862,
      "Ġwithout": 863,
      "Ġhouse": 864,
      "ted": 865,
      "ĠRe": 866,
      "Ġter": 867,
      "Ġ7": 868,
      "Ġfollow": 869,
      "Ġexp": 870,
      "Ġside": 871,
      "ool": 872,
      "Ġsec": 873,
      "ph": 874,
      "Ġback": 875,
      "ible": 876,
      "Ġrel": 877,
      "Ġmake": 878,
      "urch": 879,
      "Ġjust": 880,
      "vern": 881,
      "Ġbetween": 882,
      "row": 883,
      "Ġpresent": 884,
      "Ġgener": 885,
      "Ġ16": 886,
      "Ġever": 887,
      "Ġthough": 888,
      "EN": 889,
      "Ġfriend": 890,
      "Ġ-": 891,
      "ib": 892,
      "Ġpur": 893,
      "Ġdiff": 894,
      "Ġwar": 895,
      "ĠWh": 896,
      "sh": 897,
      "Ġfew": 898,
      "Ġbo": 899,
      "Ġass": 900,
      "AR": 901,
      "ĠOn": 902,
      "Ġnew": 903,
      "ened": 904,
      "air": 905,
      "Ġleft": 906,
      "wards": 907,
      "Ġmon": 908,
      "att": 909,
      "Ġbeg": 910,
      "vers": 911,
      "Ġmiles": 912,
      "ertain": 913,
      "Ġinst": 914,
      "Ġwater": 915,
      "osed": 916,
      "aster": 917,
      "ts": 918,
      "Ġposs": 919,
      "Ġwhile": 920,
      "Ġinc": 921,
      ",'": 922,
      "ale": 923,
      "ug": 924,
      "Ġpers": 925,
      "ĠAn": 926,
      "Ġturn": 927,
      "Ġwork": 928,
      "ants": 929,
      "ier": 930,
      "ĠNo": 931,
      "Ġnum": 932,
      "ived": 933,
      "uring": 934,
      "du": 935,
      "ief": 936,
      "Ġlarge": 937,
      "Ġyoung": 938,
      "Ġple": 939,
      "Ġhaving": 940,
      "Ġgiv": 941,
      "Ġfeet": 942,
      "Ġyet": 943,
      "ĠAr": 944,
      "ause": 945,
      "ĠAl": 946,
      "ither": 947,
      "apt": 948,
      "Ġmin": 949,
      "Ġright": 950,
      "Ġheart": 951,
      "ual": 952,
      "ham": 953,
      "Ġev": 954,
      "ĠYou": 955,
      "Ġchild": 956,
      "uth": 957,
      "ĠDe": 958,
      "Ġaway": 959,
      "ures": 960,
      "ner": 961,
      "Ġname": 962,
      "Ġsmall": 963,
      "Ġchan": 964,
      "ĠMar": 965,
      "aut": 966,
      "lish": 967,
      "Ġreturn": 968,
      "its": 969,
      "ield": 970,
      "Ġonce": 971,
      "ene": 972,
      "ail": 973,
      "Ġeach": 974,
      "Ġtake": 975,
      "cy": 976,
      "Ġconf": 977,
      "ross": 978,
      "ised": 979,
      "cted": 980,
      "Ġcalled": 981,
      "Ġinter": 982,
      "ĠTo": 983,
      "IS": 984,
      "ple": 985,
      "Ġword": 986,
      "Ġte": 987,
      "Ġpoint": 988,
      "Ġnight": 989,
      "Ġagainst": 990,
      "ired": 991,
      "Ġfam": 992,
      "ĠMrs": 993,
      "Ġear": 994,
      "ĠInd": 995,
      "Ġstr": 996,
      "rib": 997,
      "cept": 998,
      "Ġref": 999,
      "ubl": 1000,
      "Ġunt": 1001,
      "cess": 1002,
      "up": 1003,
      "Ġlight": 1004,
      "Ġadv": 1005,
      "Ġlove": 1006,
      "ott": 1007,
      "Ġaff": 1008,
      "als": 1009,
      "omet": 1010,
      "Ġyear": 1011,
      "Ġhigh": 1012,
      "iam": 1013,
      "Ġrest": 1014,
      "Ġing": 1015,
      "Ġdep": 1016,
      "Ġamong": 1017,
      "Ġwent": 1018,
      "Ġwom": 1019,
      "most": 1020,
      "Ġanother": 1021,
      "ters": 1022,
      "Ġpar": 1023,
      "oun": 1024,
      "ĠWill": 1025,
      "ments": 1026,
      "ey": 1027,
      "Ġest": 1028,
      "Ġdisc": 1029,
      "Ġnear": 1030,
      "AL": 1031,
      "Ġsoon": 1032,
      "Ġgu": 1033,
      "Ġvis": 1034,
      "get": 1035,
      "Ġhalf": 1036,
      "Ġtook": 1037,
      "Ġcol": 1038,
      "Ġeyes": 1039,
      "Ġkind": 1040,
      "),": 1041,
      "Ġwr": 1042,
      "Ġbre": 1043,
      "ĠHis": 1044,
      "Ġact": 1045,
      "ceed": 1046,
      "Ġ15": 1047,
      "men": 1048,
      "ern": 1049,
      "Ġsent": 1050,
      "Ġseen": 1051,
      "Ġget": 1052,
      "Ġfind": 1053,
      "Ġface": 1054,
      "Ġadd": 1055,
      "Ġeff": 1056,
      "Ġwhole": 1057,
      "Ġremain": 1058,
      "ret": 1059,
      "Ġfather": 1060,
      "ular": 1061,
      "Ġoft": 1062,
      "den": 1063,
      "Ġste": 1064,
      "Ġput": 1065,
      "ention": 1066,
      "Ġtre": 1067,
      "any": 1068,
      "Ġ9": 1069,
      "ĠNew": 1070,
      "Ġboth": 1071,
      "ĠCom": 1072,
      "ows": 1073,
      "ways": 1074,
      "ating": 1075,
      "ians": 1076,
      "ĠMiss": 1077,
      "Ġfour": 1078,
      "Ġwhom": 1079,
      "ĠSir": 1080,
      "augh": 1081,
      "Ġ10": 1082,
      "here": 1083,
      "ames": 1084,
      "ĠLe": 1085,
      "me": 1086,
      "ities": 1087,
      "ĠFor": 1088,
      "xt": 1089,
      "ury": 1090,
      "Ġ...": 1091,
      "erest": 1092,
      "Ġmind": 1093,
      "ider": 1094,
      "Ġhowever": 1095,
      "Ġchar": 1096,
      "med": 1097,
      "AT": 1098,
      "Ġnothing": 1099,
      "ah": 1100,
      "ately": 1101,
      "Ġgive": 1102,
      "Ġwind": 1103,
      "ĠIs": 1104,
      "Ġriver": 1105,
      "aw": 1106,
      "ĠBe": 1107,
      "rew": 1108,
      "Ġfeel": 1109,
      "ĠLord": 1110,
      "Ġdays": 1111,
      "Ġins": 1112,
      "II": 1113,
      "Ġless": 1114,
      "ably": 1115,
      "vel": 1116,
      "amp": 1117,
      "oc": 1118,
      "Ġrece": 1119,
      "Ġhands": 1120,
      "iness": 1121,
      "Ġele": 1122,
      "ND": 1123,
      "ank": 1124,
      "Ġhome": 1125,
      "ched": 1126,
      "aking": 1127,
      "iet": 1128,
      "Ġ12": 1129,
      "Ġdra": 1130,
      "Ġcr": 1131,
      "ery": 1132,
      "Ġfore": 1133,
      "Ġtaken": 1134,
      "Ġcourse": 1135,
      "ĠWhen": 1136,
      "Ġsomet": 1137,
      "Ġhour": 1138,
      "Ġbeaut": 1139,
      "Ġcent": 1140,
      "ĠCl": 1141,
      "Ġstand": 1142,
      "000": 1143,
      "ling": 1144,
      "ning": 1145,
      "ĠEnglish": 1146,
      "Ġcur": 1147,
      "ison": 1148,
      "Ġtell": 1149,
      "ĠThat": 1150,
      "Ġdel": 1151,
      "Ġbro": 1152,
      "Ġfull": 1153,
      "ĠSc": 1154,
      "Ġhapp": 1155,
      "ting": 1156,
      "Ġabove": 1157,
      "Ġdire": 1158,
      "sw": 1159,
      "ides": 1160,
      "ute": 1161,
      "Ġworld": 1162,
      "Ġson": 1163,
      "Ġdou": 1164,
      "ued": 1165,
      "Ġes": 1166,
      "Ġplac": 1167,
      "Ġcle": 1168,
      "ĠEd": 1169,
      "ives": 1170,
      "Ġround": 1171,
      "act": 1172,
      "selves": 1173,
      "Ġsaw": 1174,
      "ĠWhat": 1175,
      "Ġpleas": 1176,
      "gin": 1177,
      "ĠPr": 1178,
      "Ġmo": 1179,
      "alk": 1180,
      "Ġalways": 1181,
      "Ġinterest": 1182,
      "Ġdef": 1183,
      "Ġport": 1184,
      "Ġread": 1185,
      "ured": 1186,
      "Ġalmost": 1187,
      "Ġpri": 1188,
      "Ġcertain": 1189,
      "Ġrock": 1190,
      "Ġserv": 1191,
      "undred": 1192,
      "Ġcontin": 1193,
      "ĠIf": 1194,
      "ages": 1195,
      "Ġmem": 1196,
      "ason": 1197,
      "Ġuntil": 1198,
      "ĠSp": 1199,
      "ided": 1200,
      "ches": 1201,
      "osition": 1202,
      "Ġroom": 1203,
      "'d": 1204,
      "Ġwhose": 1205,
      "Ġnorth": 1206,
      "Ġfell": 1207,
      "Ġcare": 1208,
      "Ġopp": 1209,
      "Ġsil": 1210,
      "ĠSo": 1211,
      "ution": 1212,
      "Ġcond": 1213,
      "Ġdet": 1214,
      "Ġsuff": 1215,
      "Ġmet": 1216,
      "Ġbri": 1217,
      "Ġbest": 1218,
      "Ġche": 1219,
      "Ġinde": 1220,
      "ĠGe": 1221,
      "enty": 1222,
      "son": 1223,
      "Ġsever": 1224,
      "Ġmom": 1225,
      "ody": 1226,
      "Ġpower": 1227,
      "ublic": 1228,
      "Ġsum": 1229,
      "Ġquite": 1230,
      "eng": 1231,
      "ĠEngland": 1232,
      "Ġhundred": 1233,
      "Ġbus": 1234,
      "Ġsea": 1235,
      "ley": 1236,
      "Ġinv": 1237,
      "ude": 1238,
      "OU": 1239,
      "ĠGod": 1240,
      "Ġmorn": 1241,
      "ines": 1242,
      "Ġadm": 1243,
      "ountain": 1244,
      "Ġseemed": 1245,
      "Ġart": 1246,
      "Ġsix": 1247,
      "elt": 1248,
      "Ġduring": 1249,
      "ets": 1250,
      "ĠMa": 1251,
      "Ġsk": 1252,
      "Ġfr": 1253,
      "ĠQ": 1254,
      "ĠCon": 1255,
      "Ġpoor": 1256,
      "Ġed": 1257,
      "Ġ186": 1258,
      "Ġopen": 1259,
      "aring": 1260,
      "Ġhard": 1261,
      "Ġstate": 1262,
      "Ġsw": 1263,
      "de": 1264,
      "Ġsat": 1265,
      "ub": 1266,
      "iew": 1267,
      "Ġoffic": 1268,
      "ĠWilliam": 1269,
      "Ġdeath": 1270,
      "Ġfact": 1271,
      "rist": 1272,
      "Ġdone": 1273,
      "Ġ14": 1274,
      "ached": 1275,
      "Ġbetter": 1276,
      "Ġgiven": 1277,
      "Ġsince": 1278,
      "Ġsouth": 1279,
      "az": 1280,
      "Ġ13": 1281,
      "unt": 1282,
      "ĠCol": 1283,
      "vo": 1284,
      "owed": 1285,
      "ĠBy": 1286,
      "Ġbrought": 1287,
      "Ġseveral": 1288,
      "io": 1289,
      "ls": 1290,
      "Ġgent": 1291,
      "oud": 1292,
      "bt": 1293,
      "Ġprop": 1294,
      "Ġdon": 1295,
      "Ġel": 1296,
      "Ġground": 1297,
      "Ġroad": 1298,
      "Ġlooked": 1299,
      "Ġmother": 1300,
      "oot": 1301,
      "gg": 1302,
      "Ġtem": 1303,
      "rance": 1304,
      "Ġking": 1305,
      "TER": 1306,
      "Ġwithin": 1307,
      "ĠKing": 1308,
      "ird": 1309,
      "by": 1310,
      "ĠUn": 1311,
      "ident": 1312,
      "Ġ11": 1313,
      "Ġchurch": 1314,
      "aid": 1315,
      "Ġ&": 1316,
      "Ġhor": 1317,
      "Ġcity": 1318,
      "Ġpassed": 1319,
      "ering": 1320,
      "Ġheard": 1321,
      "thing": 1322,
      "Ġconst": 1323,
      "ĠRo": 1324,
      "Ġwant": 1325,
      "Ġconsider": 1326,
      "irc": 1327,
      "oint": 1328,
      "ĠWith": 1329,
      "ific": 1330,
      "Ġmoment": 1331,
      "Ġvill": 1332,
      "ert": 1333,
      "Ġansw": 1334,
      "ĠX": 1335,
      "Ġmorning": 1336,
      "Ġfall": 1337,
      "Ġcor": 1338,
      "une": 1339,
      "Ġhon": 1340,
      "Ġdec": 1341,
      "Ġbar": 1342,
      "Ġhum": 1343,
      "AP": 1344,
      "ually": 1345,
      "Ġcann": 1346,
      "rench": 1347,
      "Ġthing": 1348,
      "Ġten": 1349,
      "Ġtold": 1350,
      "ĠChar": 1351,
      "ĠBr": 1352,
      "Ġvar": 1353,
      "cha": 1354,
      "ĠThen": 1355,
      "Ġprov": 1356,
      "Ġcap": 1357,
      "Ġgave": 1358,
      "ung": 1359,
      "Ġmer": 1360,
      "ards": 1361,
      "ister": 1362,
      "ense": 1363,
      "Ġprom": 1364,
      "THE": 1365,
      "Ġothers": 1366,
      "Ġfort": 1367,
      "ken": 1368,
      "aim": 1369,
      "Ġperf": 1370,
      "Ġtill": 1371,
      "Ġsett": 1372,
      "haps": 1373,
      "Ġsun": 1374,
      "Ġnext": 1375,
      "Ġwife": 1376,
      "Ġ*": 1377,
      "Ġknown": 1378,
      "ony": 1379,
      "Ġlaw": 1380,
      "Ġtru": 1381,
      "ser": 1382,
      "Ġsim": 1383,
      "ient": 1384,
      "ended": 1385,
      "ĠGo": 1386,
      "ĠOh": 1387,
      "Ġmatter": 1388,
      "IC": 1389,
      "ges": 1390,
      "Ġsch": 1391,
      "uss": 1392,
      "Ġchief": 1393,
      "ship": 1394,
      "Ġthus": 1395,
      "Ġprin": 1396,
      "Ġsucc": 1397,
      "ring": 1398,
      "Ġbelie": 1399,
      "Ġstrong": 1400,
      "Ġtri": 1401,
      "Ġprev": 1402,
      "Ġalong": 1403,
      "Ġnumber": 1404,
      "Ġmeet": 1405,
      "ĠAND": 1406,
      "ĠHer": 1407,
      "bert": 1408,
      "of": 1409,
      "Ġthemselves": 1410,
      "ric": 1411,
      "ĠCo": 1412,
      "Ġorder": 1413,
      "range": 1414,
      "ĠAll": 1415,
      "ances": 1416,
      "Ġrather": 1417,
      "Ġsy": 1418,
      "Ġpol": 1419,
      "ying": 1420,
      "ĠPar": 1421,
      "overed": 1422,
      "ĠHow": 1423,
      "Ġbur": 1424,
      "bit": 1425,
      "Ġheav": 1426,
      "ilt": 1427,
      "Ġkeep": 1428,
      "RE": 1429,
      "Ġisland": 1430,
      "ully": 1431,
      "ee": 1432,
      "Ġir": 1433,
      "vernment": 1434,
      "Av": 1435,
      "Ġgentle": 1436,
      "ĠÂ": 1437,
      "atch": 1438,
      "Ġthings": 1439,
      "ash": 1440,
      "Ġperson": 1441,
      "IT": 1442,
      "Ġsubject": 1443,
      "Ġenough": 1444,
      "ĠFrench": 1445,
      "ii": 1446,
      "Ġappear": 1447,
      "Ġvo": 1448,
      "Ġet": 1449,
      "Ġshort": 1450,
      "Ġcharact": 1451,
      "Ġuse": 1452,
      "ster": 1453,
      "ĠChrist": 1454,
      "ressed": 1455,
      "Ġcirc": 1456,
      "ĠMy": 1457,
      "Ġarri": 1458,
      "Ġdiv": 1459,
      "used": 1460,
      "aint": 1461,
      "Ġwoman": 1462,
      "ession": 1463,
      "Ġdark": 1464,
      "Ġlead": 1465,
      "Ġvol": 1466,
      "Ġheld": 1467,
      "Ġwhite": 1468,
      "Ġwa": 1469,
      "pend": 1470,
      "Ġgir": 1471,
      "Ġce": 1472,
      "fort": 1473,
      "Ġ,": 1474,
      "Ġgoing": 1475,
      "arn": 1476,
      "nce": 1477,
      "Ġknew": 1478,
      "Ġhill": 1479,
      "Ġgeneral": 1480,
      "Ġdiffere": 1481,
      "Ġdeep": 1482,
      "ane": 1483,
      "Ġnor": 1484,
      "oney": 1485,
      "Ġrun": 1486,
      "ĠBrit": 1487,
      "Ġexc": 1488,
      "eth": 1489,
      "tern": 1490,
      "Ġbuild": 1491,
      "ection": 1492,
      "Ġswe": 1493,
      "LE": 1494,
      "pped": 1495,
      "enn": 1496,
      "Ġtion": 1497,
      "Ġrequ": 1498,
      "Ġ20": 1499,
      "Ġfelt": 1500,
      "bour": 1501,
      "Ġill": 1502,
      "vere": 1503,
      "Ġdesc": 1504,
      "Ġfur": 1505,
      "day": 1506,
      "ms": 1507,
      "Ġcannot": 1508,
      "ĠMay": 1509,
      "Ġmark": 1510,
      "ative": 1511,
      "ety": 1512,
      "Ġsit": 1513,
      "Ġclose": 1514,
      "Ġtowards": 1515,
      "Ġgre": 1516,
      "Ġmountain": 1517,
      "ger": 1518,
      "Ġoften": 1519,
      "Ġeffect": 1520,
      "eneral": 1521,
      "Ġrespect": 1522,
      "Ġmod": 1523,
      "ĠCH": 1524,
      "Ġdied": 1525,
      "Ġca": 1526,
      "Ġpublic": 1527,
      "Ġwords": 1528,
      "bers": 1529,
      "Ġdre": 1530,
      "Ġdear": 1531,
      "ission": 1532,
      "br": 1533,
      "Ġfamily": 1534,
      "Ġdoor": 1535,
      "Ġtimes": 1536,
      "Ġnecess": 1537,
      "Ġspir": 1538,
      "Ġeng": 1539,
      "Ġview": 1540,
      "Ġcommand": 1541,
      "Ġfin": 1542,
      "Ġfire": 1543,
      "ĠGeor": 1544,
      "Ġappro": 1545,
      "Ġpat": 1546,
      "aptain": 1547,
      "Ġasked": 1548,
      "ime": 1549,
      "iful": 1550,
      "Ġfive": 1551,
      "Ġdoubt": 1552,
      "Ġlay": 1553,
      "ĠAmer": 1554,
      "Ġchildren": 1555,
      "uc": 1556,
      "attle": 1557,
      "Ġnearly": 1558,
      "ats": 1559,
      "ĠOf": 1560,
      "Ġproper": 1561,
      "Ġlow": 1562,
      "oke": 1563,
      "Ġhope": 1564,
      "Ġval": 1565,
      "Ġquest": 1566,
      "Ġru": 1567,
      "Ġaw": 1568,
      "ices": 1569,
      "Ġsure": 1570,
      "ys": 1571,
      "ior": 1572,
      "tained": 1573,
      "Ġcharacter": 1574,
      "Ġline": 1575,
      "idge": 1576,
      "ousand": 1577,
      "ĠThom": 1578,
      "Ġstru": 1579,
      "use": 1580,
      "ork": 1581,
      "Ġsecond": 1582,
      "asion": 1583,
      "itted": 1584,
      "ĠHen": 1585,
      "Ġgot": 1586,
      "Ġfav": 1587,
      "ĠBl": 1588,
      "uthor": 1589,
      "Ġaccount": 1590,
      "ION": 1591,
      "Ġobser": 1592,
      "Ġused": 1593,
      "bs": 1594,
      "illed": 1595,
      "Ġstood": 1596,
      "Ġtoget": 1597,
      "Ġmis": 1598,
      "Ġprodu": 1599,
      "Ġwood": 1600,
      "Ġtogether": 1601,
      "Ġsold": 1602,
      "que": 1603,
      "Ġdoes": 1604,
      "Ġ185": 1605,
      "Ġbed": 1606,
      "ax": 1607,
      "ĠAvas": 1608,
      "ĠAmeric": 1609,
      "Ġfine": 1610,
      "Ġturned": 1611,
      "fully": 1612,
      "Ġremark": 1613,
      "Ġprob": 1614,
      "Ġsing": 1615,
      "erm": 1616,
      "Ġthousand": 1617,
      "Ġimport": 1618,
      "Ġve": 1619,
      "ote": 1620,
      "ists": 1621,
      "Ġborn": 1622,
      "ops": 1623,
      "Ġformer": 1624,
      "ĠPh": 1625,
      "Ġmonth": 1626,
      "ĠJames": 1627,
      "Ġ187": 1628,
      "Ġdri": 1629,
      "Ġmeans": 1630,
      "Ġhold": 1631,
      "ĠAb": 1632,
      "ĠLond": 1633,
      "Ġship": 1634,
      "ising": 1635,
      "Ġfollowing": 1636,
      "Ġfre": 1637,
      "aughter": 1638,
      "iving": 1639,
      "ĠAd": 1640,
      "Ġequ": 1641,
      "Ġpast": 1642,
      "Ġhel": 1643,
      "ounded": 1644,
      "Ġwall": 1645,
      "Ġhist": 1646,
      "idence": 1647,
      "Ã¦": 1648,
      "ament": 1649,
      "Ġoccup": 1650,
      "Ġbecame": 1651,
      "fe": 1652,
      "Ġprinci": 1653,
      "Ġfair": 1654,
      "Ġtrans": 1655,
      "Ġsuccess": 1656,
      "Ġsays": 1657,
      "ural": 1658,
      "owing": 1659,
      "imes": 1660,
      "Ġtwenty": 1661,
      "Ġindeed": 1662,
      "Ġboy": 1663,
      "Ġperhaps": 1664,
      "pr": 1665,
      "Ġpop": 1666,
      "Ġeither": 1667,
      "Ġreceived": 1668,
      "ĠFrom": 1669,
      "ĠPro": 1670,
      "ĠDr": 1671,
      "OL": 1672,
      "Ġcounty": 1673,
      "Ġmean": 1674,
      "Ġbecause": 1675,
      "ĠCar": 1676,
      "ĠLondon": 1677,
      "Ġleast": 1678,
      "empt": 1679,
      "uck": 1680,
      "Ġbra": 1681,
      "Ġair": 1682,
      "Ġexcept": 1683,
      "Ġcase": 1684,
      "mon": 1685,
      "IL": 1686,
      "alth": 1687,
      "ford": 1688,
      "Ġearly": 1689,
      "erous": 1690,
      "ones": 1691,
      "Ġwest": 1692,
      "Ġspeak": 1693,
      "anc": 1694,
      "ues": 1695,
      "Ġherself": 1696,
      "AS": 1697,
      "Ġunc": 1698,
      "Ġtrue": 1699,
      "cient": 1700,
      "the": 1701,
      "idd": 1702,
      "Ġbrother": 1703,
      "gy": 1704,
      "ING": 1705,
      "Ġbegan": 1706,
      "Ġvisit": 1707,
      "ready": 1708,
      "ĠAm": 1709,
      "ney": 1710,
      "Ġcommon": 1711,
      "Ġ25": 1712,
      "Ġmoney": 1713,
      "iled": 1714,
      "ĠChurch": 1715,
      "Ġ184": 1716,
      "Ġobject": 1717,
      "Ġ[": 1718,
      "oul": 1719,
      "Ġtro": 1720,
      "ized": 1721,
      "Ġcross": 1722,
      "ec": 1723,
      "Ġschool": 1724,
      "ek": 1725,
      "ĠHar": 1726,
      "Ġdest": 1727,
      "Ġpurp": 1728,
      "ĠGeorge": 1729,
      "Ġann": 1730,
      "Ġaccom": 1731,
      "val": 1732,
      "ĠOne": 1733,
      "Ġsomething": 1734,
      "OM": 1735,
      "hern": 1736,
      "ility": 1737,
      "EL": 1738,
      "Ġblack": 1739,
      "par": 1740,
      "ĠThese": 1741,
      "Ġmain": 1742,
      "Ġmyself": 1743,
      "Ġpay": 1744,
      "icul": 1745,
      "Ġ183": 1746,
      "'ll": 1747,
      "Ġsign": 1748,
      "ature": 1749,
      "Ġable": 1750,
      "ĠIN": 1751,
      "Ġwond": 1752,
      "Ġ19": 1753,
      "oura": 1754,
      "ĠNot": 1755,
      "Ġfree": 1756,
      ").": 1757,
      "Ġpain": 1758,
      "Ġabs": 1759,
      "Ġeight": 1760,
      "Ġpret": 1761,
      "Ġalone": 1762,
      "ĠThomas": 1763,
      "Ġvoice": 1764,
      "ĠOr": 1765,
      "Ġneed": 1766,
      "Ġarmy": 1767,
      "Ġlatter": 1768,
      "Ġalready": 1769,
      "ected": 1770,
      "Ġleave": 1771,
      "Ġposition": 1772,
      "iver": 1773,
      "Â°": 1774,
      "cial": 1775,
      "ĠGeneral": 1776,
      "ording": 1777,
      "Ġauthor": 1778,
      "ĠAvh": 1779,
      "Ġdev": 1780,
      "Ġearth": 1781,
      "Ġori": 1782,
      "Ġenem": 1783,
      "ĠHenry": 1784,
      "aving": 1785,
      "ius": 1786,
      "Ġ21": 1787,
      "Ġlady": 1788,
      "Ġgold": 1789,
      "Ġmanner": 1790,
      "Ġ0": 1791,
      "well": 1792,
      "ouses": 1793,
      "ots": 1794,
      "Ġparty": 1795,
      "Ġdr": 1796,
      "sequ": 1797,
      "Ġprof": 1798,
      "Ġbusiness": 1799,
      "Ġcast": 1800,
      "rict": 1801,
      "king": 1802,
      "Ġleng": 1803,
      "Ġsle": 1804,
      "Ġcal": 1805,
      "ĠAfter": 1806,
      "oms": 1807,
      "ĠMe": 1808,
      "pper": 1809,
      "Ġment": 1810,
      "Ġtbe": 1811,
      "Ġhear": 1812,
      "vell": 1813,
      "Ġdead": 1814,
      "Ġfriends": 1815,
      "ript": 1816,
      "cul": 1817,
      "gr": 1818,
      "ĠDo": 1819,
      "Ġcomple": 1820,
      "Ġreal": 1821,
      "Ġquar": 1822,
      "ased": 1823,
      "Ġreturned": 1824,
      "Ġbody": 1825,
      "ital": 1826,
      "ron": 1827,
      "Ġcoll": 1828,
      "Ġdifferent": 1829,
      "Ġoccasion": 1830,
      "Ġ22": 1831,
      "Ġplain": 1832,
      "ember": 1833,
      "Ġrepl": 1834,
      "Ġlate": 1835,
      "Ġdisp": 1836,
      "Ġdistance": 1837,
      "Ġeast": 1838,
      "ef": 1839,
      "sem": 1840,
      "dden": 1841,
      "Ġfif": 1842,
      "Ġbeh": 1843,
      "ĠNe": 1844,
      "Ġbeautiful": 1845,
      "Ġeas": 1846,
      "lu": 1847,
      "Ġ24": 1848,
      "ral": 1849,
      "Ġ30": 1850,
      "Ġlength": 1851,
      "Ġage": 1852,
      "ĠMary": 1853,
      "ald": 1854,
      "iod": 1855,
      "Ġitself": 1856,
      "Ġbes": 1857,
      "Ġstart": 1858,
      "Ġfoot": 1859,
      "Ġran": 1860,
      "iers": 1861,
      "Ġtherefore": 1862,
      "Ġlost": 1863,
      "Ġexpect": 1864,
      "Ġgone": 1865,
      "though": 1866,
      "Ġph": 1867,
      "ining": 1868,
      "aves": 1869,
      "Ġred": 1870,
      "Ġreason": 1871,
      "els": 1872,
      "Ġorigin": 1873,
      "Ġproceed": 1874,
      "Ġ23": 1875,
      "Ġdut": 1876,
      "ann": 1877,
      "co": 1878,
      "Ġsn": 1879,
      "cend": 1880,
      "stand": 1881,
      "UR": 1882,
      "Ġthy": 1883,
      "ained": 1884,
      "Ġshore": 1885,
      "Ġdecl": 1886,
      "alley": 1887,
      "medi": 1888,
      "Ġut": 1889,
      "Ġletter": 1890,
      "ented": 1891,
      "ounds": 1892,
      "IST": 1893,
      "Ġide": 1894,
      "Ġkept": 1895,
      "Ġnature": 1896,
      "rs": 1897,
      "Ġbene": 1898,
      "Ġvillage": 1899,
      "Ġsuper": 1900,
      "Ġgirl": 1901,
      "Ġsudden": 1902,
      "Ġcarried": 1903,
      "ape": 1904,
      "ĠEl": 1905,
      "ĠCha": 1906,
      "arent": 1907,
      "ĠFran": 1908,
      "Ġbelieve": 1909,
      "ĠAvith": 1910,
      "ĠNor": 1911,
      "oor": 1912,
      "ina": 1913,
      "Ġmaking": 1914,
      "Ġbook": 1915,
      "aged": 1916,
      "Ġmag": 1917,
      "iment": 1918,
      "Ġere": 1919,
      "Ġhelp": 1920,
      "Ġma": 1921,
      "Ġcoast": 1922,
      "ĠLady": 1923,
      "Ġfront": 1924,
      "Ġestab": 1925,
      "Ġwild": 1926,
      "mber": 1927,
      "Ġneigh": 1928,
      "Ġevening": 1929,
      "ille": 1930,
      "Ġquestion": 1931,
      "Ġcut": 1932,
      "der": 1933,
      "ĠSh": 1934,
      "CH": 1935,
      "Ġexist": 1936,
      "18": 1937,
      "Ġbring": 1938,
      "Ġfear": 1939,
      "ination": 1940,
      "essel": 1941,
      ".)": 1942,
      "iously": 1943,
      "Ġstra": 1944,
      "Ġmarried": 1945,
      "ĠBar": 1946,
      "ĠAp": 1947,
      "Ġscar": 1948,
      "Ġsol": 1949,
      "Ġperiod": 1950,
      "Ġplay": 1951,
      "no": 1952,
      "Ġhus": 1953,
      "ams": 1954,
      "owers": 1955,
      "bur": 1956,
      "ience": 1957,
      "Ġincl": 1958,
      "Ġsqu": 1959,
      "Ġpriv": 1960,
      "ĠHere": 1961,
      "Ġarms": 1962,
      "let": 1963,
      "ĠPer": 1964,
      "Ġjud": 1965,
      "Ġgrand": 1966,
      "Ġfurther": 1967,
      "ries": 1968,
      "Ġexpl": 1969,
      "Ġdaughter": 1970,
      "amed": 1971,
      "ĠAug": 1972,
      "?\"": 1973,
      "Ġlooking": 1974,
      "ze": 1975,
      "Ġwrit": 1976,
      "ĠZ": 1977,
      "Ġhorse": 1978,
      "akes": 1979,
      "Ġworth": 1980,
      "Ġthir": 1981,
      "Ġpeace": 1982,
      "ob": 1983,
      "gan": 1984,
      "alt": 1985,
      "ĠWell": 1986,
      "Ġlad": 1987,
      "Ġbecome": 1988,
      "ĠCharles": 1989,
      "Ġsitu": 1990,
      "Ġcause": 1991,
      "mp": 1992,
      "Ġspirit": 1993,
      "Ġanything": 1994,
      "ĠNorth": 1995,
      "Ġdang": 1996,
      "Ġsand": 1997,
      "Ġfield": 1998,
      "ĠBritish": 1999,
      "Ġpa": 2000,
      "Ġlab": 2001,
      "ĠEur": 2002,
      "Ġsight": 2003,
      "Ġforce": 2004,
      "ught": 2005,
      "Ġlim": 2006,
      "Ġbuilt": 2007,
      "Ġinha": 2008,
      "AM": 2009,
      "Ġconc": 2010,
      "ĠâĢ": 2011,
      "Ġregard": 2012,
      "ĠÂ£": 2013,
      "Ġtreat": 2014,
      "itude": 2015,
      "Ġwish": 2016,
      "Ġseems": 2017,
      "orrow": 2018,
      "Ġcontinued": 2019,
      "Ġentire": 2020,
      "Ġstri": 2021,
      "Ġpost": 2022,
      "Ġacqu": 2023,
      "ism": 2024,
      "ENT": 2025,
      "Ġleg": 2026,
      "band": 2027,
      "Ġself": 2028,
      "Ġancient": 2029,
      "to": 2030,
      "ics": 2031,
      "Ġvessel": 2032,
      "hard": 2033,
      "ĠCount": 2034,
      "riage": 2035,
      "ĠRev": 2036,
      "ĠNow": 2037,
      "che": 2038,
      "Ġ27": 2039,
      "ĠWest": 2040,
      "ĠCaptain": 2041,
      "Ġdem": 2042,
      "yn": 2043,
      "orts": 2044,
      "ging": 2045,
      "Ġformed": 2046,
      "ET": 2047,
      "Ġimmedi": 2048,
      "Ġdu": 2049,
      "ĠCan": 2050,
      "Ġreached": 2051,
      "ĠCr": 2052,
      "Ġthou": 2053,
      "Ġwomen": 2054,
      "Ġlive": 2055,
      "ĠEurope": 2056,
      "ĠFrance": 2057,
      "Ġ26": 2058,
      "Ġdro": 2059,
      "sp": 2060,
      "isf": 2061,
      "iar": 2062,
      "Ġdirect": 2063,
      "ĠGer": 2064,
      "Ġpossible": 2065,
      "AND": 2066,
      "uted": 2067,
      "oman": 2068,
      "ĠState": 2069,
      "Ġwhether": 2070,
      "Ġcoming": 2071,
      "Ġesc": 2072,
      "ĠPl": 2073,
      "ified": 2074,
      "Ġcircum": 2075,
      "Ġreplied": 2076,
      "Ġled": 2077,
      "Ġstone": 2078,
      "Ġhours": 2079,
      "oured": 2080,
      "AV": 2081,
      "Ġcourt": 2082,
      "Ġmus": 2083,
      "Ġplaced": 2084,
      "Ġbad": 2085,
      "Ġacross": 2086,
      "Ġexam": 2087,
      "ils": 2088,
      "Ġbehind": 2089,
      "cious": 2090,
      "Ġquiet": 2091,
      "arch": 2092,
      "Ġjo": 2093,
      "Ġattempt": 2094,
      "Ġloc": 2095,
      "Ġx": 2096,
      "Ġcold": 2097,
      "Ġrepres": 2098,
      "Ġmaster": 2099,
      "airs": 2100,
      "Ġcorn": 2101,
      "Ġtrou": 2102,
      "rying": 2103,
      "Ġmere": 2104,
      "ler": 2105,
      "resh": 2106,
      "Ġer": 2107,
      "Ġmention": 2108,
      "urs": 2109,
      "Ġrelig": 2110,
      "Ġclass": 2111,
      "Ġstep": 2112,
      "Ġpossess": 2113,
      "inary": 2114,
      "Ġpict": 2115,
      "Ġinform": 2116,
      "Ġhistory": 2117,
      "Ġentered": 2118,
      "Ġ28": 2119,
      "Ġbelong": 2120,
      "Ġsweet": 2121,
      "aded": 2122,
      "ision": 2123,
      "ĠHouse": 2124,
      "Ġwit": 2125,
      "Ġdistrict": 2126,
      "Ġconv": 2127,
      "over": 2128,
      "Ġenemy": 2129,
      "ctor": 2130,
      "cell": 2131,
      "ression": 2132,
      "Ġnar": 2133,
      "Ġplaces": 2134,
      "Ġservice": 2135,
      "Ġprobably": 2136,
      "Ġenc": 2137,
      "Ġcontain": 2138,
      "Ġexcl": 2139,
      "Ġaround": 2140,
      "Ġbey": 2141,
      "ĠAV": 2142,
      "Ġpract": 2143,
      "ORY": 2144,
      "eb": 2145,
      "Ġgenerally": 2146,
      "ole": 2147,
      "antly": 2148,
      "ulation": 2149,
      "ush": 2150,
      "ĠStates": 2151,
      "Ġprot": 2152,
      "Ġ29": 2153,
      "Ġwin": 2154,
      "ciety": 2155,
      "Ġlist": 2156,
      "ĠII": 2157,
      "Ġpurpose": 2158,
      "Ġresult": 2159,
      "ien": 2160,
      "Ġsir": 2161,
      "Ġrich": 2162,
      "Ġnation": 2163,
      "Ġtrees": 2164,
      "Ġbeyond": 2165,
      "Ġbright": 2166,
      "ED": 2167,
      "Ġaud": 2168,
      "Ġstud": 2169,
      "Ġhig": 2170,
      "Ġtruth": 2171,
      "wing": 2172,
      "Ġfollowed": 2173,
      "Ġafterwards": 2174,
      "iting": 2175,
      "Ġhusband": 2176,
      "sc": 2177,
      "oly": 2178,
      "ploy": 2179,
      "Ġhuman": 2180,
      "itary": 2181,
      "Ġtalk": 2182,
      "Ġincre": 2183,
      "Ġsuc": 2184,
      "Ġhouses": 2185,
      "bed": 2186,
      "Ġappeared": 2187,
      "Ġperfect": 2188,
      "APTER": 2189,
      "Ġblood": 2190,
      "Ġmass": 2191,
      "Ġnecessary": 2192,
      "ĠComm": 2193,
      "Ġfig": 2194,
      "ĠSouth": 2195,
      "Ġgovernment": 2196,
      "Ġda": 2197,
      "ĠEx": 2198,
      "Ġwat": 2199,
      "aught": 2200,
      "Ġlaid": 2201,
      "ĠJu": 2202,
      "uff": 2203,
      "ize": 2204,
      "Ġappoint": 2205,
      "Ġver": 2206,
      "na": 2207,
      "hood": 2208,
      "Ġcoun": 2209,
      "ises": 2210,
      "Ġelse": 2211,
      "Ġbreak": 2212,
      "Ġvarious": 2213,
      "Ġtaking": 2214,
      "teen": 2215,
      "Ġclear": 2216,
      "Ġbattle": 2217,
      "Ġprison": 2218,
      "onel": 2219,
      "Ġsometimes": 2220,
      "inct": 2221,
      "Ġalthough": 2222,
      "Ġeye": 2223,
      "Ġinflu": 2224,
      "ĠGre": 2225,
      "pid": 2226,
      "ĠYes": 2227,
      "side": 2228,
      "Ġfaith": 2229,
      "Ġbit": 2230,
      "Ġaccording": 2231,
      "Ġopin": 2232,
      "Ġscarce": 2233,
      "Ġready": 2234,
      "Ġemploy": 2235,
      "16": 2236,
      "itting": 2237,
      "ming": 2238,
      "ĠMaj": 2239,
      "Ġstrange": 2240,
      "ĠGra": 2241,
      "ĠTr": 2242,
      "ST": 2243,
      "Ġ?\"": 2244,
      "ston": 2245,
      "Ġalt": 2246,
      "Ġemb": 2247,
      "rent": 2248,
      "Ġpal": 2249,
      "Ġvalley": 2250,
      "Ġshow": 2251,
      "Ġattack": 2252,
      "ours": 2253,
      "10": 2254,
      "iter": 2255,
      "Ġsound": 2256,
      "Ġmove": 2257,
      "The": 2258,
      "lled": 2259,
      "Ġwonder": 2260,
      "Ġspec": 2261,
      "Ġparts": 2262,
      "ality": 2263,
      "Ġextre": 2264,
      "ĠPet": 2265,
      "olog": 2266,
      "Ġbound": 2267,
      "isted": 2268,
      "Ġanim": 2269,
      "12": 2270,
      "ĠFl": 2271,
      "ays": 2272,
      "Ġmur": 2273,
      "ĠJan": 2274,
      "ĠSome": 2275,
      "Ġtable": 2276,
      "Ġant": 2277,
      "Ġpie": 2278,
      "Ġpersons": 2279,
      "ĠGl": 2280,
      "Ġsatisf": 2281,
      "Ġconn": 2282,
      "ĠGr": 2283,
      "utes": 2284,
      "ead": 2285,
      "Ġmist": 2286,
      "Ġtend": 2287,
      "Ġcompany": 2288,
      "Ġsad": 2289,
      "Ġchange": 2290,
      "ĠDu": 2291,
      "ĠPe": 2292,
      "Ġenj": 2293,
      "Ġcried": 2294,
      "Ġbank": 2295,
      "bled": 2296,
      "Ġbuilding": 2297,
      "Ġrocks": 2298,
      "ĠLa": 2299,
      "Ġprincip": 2300,
      "itions": 2301,
      "ĠRic": 2302,
      "Ġgard": 2303,
      "Ġreally": 2304,
      "ĠLet": 2305,
      "Ġmonths": 2306,
      "Ġcovered": 2307,
      "ement": 2308,
      "Ġpray": 2309,
      "ville": 2310,
      "Ġhot": 2311,
      "Ġhappy": 2312,
      "ĠPhil": 2313,
      "Ġliving": 2314,
      "Ġtroops": 2315,
      "Ġjour": 2316,
      "ĠTO": 2317,
      "Ġthee": 2318,
      "Ġclaim": 2319,
      "ĠST": 2320,
      "cially": 2321,
      "Ġsac": 2322,
      "Ġmeas": 2323,
      "angu": 2324,
      "orough": 2325,
      "ĠMad": 2326,
      "Ġinhabit": 2327,
      "ĠQue": 2328,
      "oved": 2329,
      "ivers": 2330,
      "reet": 2331,
      "bo": 2332,
      "Ġdesp": 2333,
      "Ġexper": 2334,
      "Ġmile": 2335,
      "ivil": 2336,
      "Ġsuffic": 2337,
      "ume": 2338,
      "Ġlearn": 2339,
      "orted": 2340,
      "een": 2341,
      "Ġanswered": 2342,
      "Ġforth": 2343,
      "ĠGu": 2344,
      "ĠSm": 2345,
      "Ġnative": 2346,
      "estern": 2347,
      "Ġwhy": 2348,
      "Ġund": 2349,
      "ĠYork": 2350,
      "Ġrose": 2351,
      "ested": 2352,
      "Ġquick": 2353,
      "15": 2354,
      "ales": 2355,
      "Ġfac": 2356,
      "Ġlie": 2357,
      "Ġbegin": 2358,
      "Ġiron": 2359,
      "house": 2360,
      "Ġneighbour": 2361,
      "Ġofficers": 2362,
      "RI": 2363,
      "ishop": 2364,
      "Ġremained": 2365,
      "AD": 2366,
      "arl": 2367,
      "cil": 2368,
      "ĠPres": 2369,
      "pel": 2370,
      "ĠRobert": 2371,
      "Ġgreater": 2372,
      "Ġsort": 2373,
      "Ġhur": 2374,
      "Ġbelow": 2375,
      "Ġmill": 2376,
      "Ġrev": 2377,
      "AC": 2378,
      "Ġvi": 2379,
      "oes": 2380,
      "Ġobl": 2381,
      "Ġtou": 2382,
      "ipp": 2383,
      "Ġespe": 2384,
      "ril": 2385,
      "Ġ182": 2386,
      "vey": 2387,
      "RO": 2388,
      "field": 2389,
      "Ġenjoy": 2390,
      "ĠOct": 2391,
      "Ġarrived": 2392,
      "ĠScot": 2393,
      "ourt": 2394,
      "Ġanswer": 2395,
      "Ġcommun": 2396,
      "Ġdeterm": 2397,
      "Ġwalk": 2398,
      "usion": 2399,
      "ĠJune": 2400,
      "ords": 2401,
      "Ġamount": 2402,
      "Ġadded": 2403,
      "vernor": 2404,
      "iddle": 2405,
      "uct": 2406,
      "isc": 2407,
      "Ġglad": 2408,
      "osp": 2409,
      "ĠIndian": 2410,
      "Ġdepart": 2411,
      "ĠDav": 2412,
      "Ġpen": 2413,
      "ories": 2414,
      "ases": 2415,
      "ĠEs": 2416,
      "Ġban": 2417,
      "Ġportion": 2418,
      "Ġago": 2419,
      "orses": 2420,
      "Ġden": 2421,
      "ped": 2422,
      "Ġappearance": 2423,
      "Ġoccur": 2424,
      "Ġsucceed": 2425,
      "por": 2426,
      "Ġfrequ": 2427,
      "Ġcamp": 2428,
      "read": 2429,
      "ĠQu": 2430,
      "Ġenter": 2431,
      "ples": 2432,
      "Ġwide": 2433,
      "ium": 2434,
      "Ġpretty": 2435,
      "Ġstreng": 2436,
      "iding": 2437,
      "erv": 2438,
      "Ġresol": 2439,
      "reg": 2440,
      "Ġopened": 2441,
      "Ġanx": 2442,
      "ences": 2443,
      "17": 2444,
      "oe": 2445,
      "ously": 2446,
      "ux": 2447,
      "Ġmouth": 2448,
      "Ġsoul": 2449,
      "uf": 2450,
      "Ġidea": 2451,
      "Ġconsequ": 2452,
      "Ġprep": 2453,
      "Ġhast": 2454,
      "ĠWhy": 2455,
      "Ġtrust": 2456,
      "Ġcircumst": 2457,
      "Ġfellow": 2458,
      "IR": 2459,
      "ixed": 2460,
      "ribed": 2461,
      "Ġrapid": 2462,
      "Ġcomfort": 2463,
      "Ġnatural": 2464,
      "icult": 2465,
      "ĠMan": 2466,
      "Ġfeeling": 2467,
      "Ġfurn": 2468,
      "room": 2469,
      "Ġoffice": 2470,
      "Ġgentleman": 2471,
      "Ġheight": 2472,
      "Ġsleep": 2473,
      "Ġ$": 2474,
      "Ġfavour": 2475,
      "Ġforg": 2476,
      "ancy": 2477,
      "Ġbear": 2478,
      "ĠBur": 2479,
      "Ġlonger": 2480,
      "'m": 2481,
      "ĠGreat": 2482,
      "Ġlands": 2483,
      "ĠJuly": 2484,
      "Ġsurpr": 2485,
      "Ġdelight": 2486,
      "ĠSee": 2487,
      "Ġcost": 2488,
      "ĠEm": 2489,
      "Ġsoft": 2490,
      "14": 2491,
      "Ġstream": 2492,
      "otion": 2493,
      "irt": 2494,
      "road": 2495,
      "Ġtrade": 2496,
      "ĠSec": 2497,
      "Ġsend": 2498,
      "stem": 2499,
      "ively": 2500,
      "Ġmed": 2501,
      "Ġdirection": 2502,
      "Ġconsiderable": 2503,
      "Ġstreet": 2504,
      "Ġlived": 2505,
      "ĠAugust": 2506,
      "ored": 2507,
      "reek": 2508,
      "ledge": 2509,
      "Ġcompan": 2510,
      "Ġofthe": 2511,
      "ĠRichard": 2512,
      "ma": 2513,
      "Ġvict": 2514,
      "aching": 2515,
      "enth": 2516,
      "ĠEdward": 2517,
      "ĠPort": 2518,
      "ĠMarch": 2519,
      "ĠSept": 2520,
      "Ġthick": 2521,
      "inn": 2522,
      "pted": 2523,
      "Ġgreen": 2524,
      "night": 2525,
      "like": 2526,
      "itten": 2527,
      "Ġask": 2528,
      "ustom": 2529,
      "Ġgrant": 2530,
      "Ġhorses": 2531,
      "mit": 2532,
      "Ġforward": 2533,
      "ett": 2534,
      "Ġdifficult": 2535,
      "Ġbeauty": 2536,
      "Ġduty": 2537,
      "Ġpros": 2538,
      "Ġunderstand": 2539,
      "ex": 2540,
      "ĠSam": 2541,
      "Ġdeal": 2542,
      "ISTORY": 2543,
      "Ġpolit": 2544,
      "Ġimag": 2545,
      "uded": 2546,
      "aff": 2547,
      "Ġimpro": 2548,
      "alked": 2549,
      "rodu": 2550,
      "Ġheavy": 2551,
      "app": 2552,
      "Ġpaid": 2553,
      "iling": 2554,
      "Ġthirty": 2555,
      "ĠWas": 2556,
      "Ġinhabitants": 2557,
      "Ġwatch": 2558,
      "Ġlater": 2559,
      "Ġscene": 2560,
      "ĠMon": 2561,
      "TH": 2562,
      "Ġspot": 2563,
      "Ġcivil": 2564,
      "Ġfut": 2565,
      "ike": 2566,
      "Ġnone": 2567,
      "Ġattention": 2568,
      "Ġstory": 2569,
      "Ġspoke": 2570,
      "13": 2571,
      "oted": 2572,
      "Ġraised": 2573,
      "Ġtop": 2574,
      "yl": 2575,
      "dom": 2576,
      "Ġneg": 2577,
      "Ġfresh": 2578,
      "ĠIndians": 2579,
      "Ġdom": 2580,
      "Ġcre": 2581,
      "Ġ!\"": 2582,
      "20": 2583,
      "Ġscarcely": 2584,
      "Ġhills": 2585,
      "Ġmine": 2586,
      "pany": 2587,
      "Ġang": 2588,
      "Ġpurs": 2589,
      "Ġimmediately": 2590,
      "Ġsurr": 2591,
      "Ġimportant": 2592,
      "Ġgun": 2593,
      "Ġtrib": 2594,
      "Ġwalls": 2595,
      "Ġseven": 2596,
      "Ġmid": 2597,
      "Ġproperty": 2598,
      "Ġbroken": 2599,
      "Ġliber": 2600,
      "ĠAg": 2601,
      "Ġslight": 2602,
      "Ġusual": 2603,
      "ĠCast": 2604,
      "Ġstay": 2605,
      "ĠSha": 2606,
      "ĠTw": 2607,
      "astern": 2608,
      "Ġcrow": 2609,
      "ĠChristian": 2610,
      "where": 2611,
      "ĠRuss": 2612,
      "Ġshad": 2613,
      "ires": 2614,
      "Ġcomplete": 2615,
      "Ġsepar": 2616,
      "Ġmountains": 2617,
      "aries": 2618,
      "rie": 2619,
      "ening": 2620,
      "ĠCor": 2621,
      "Ġtravell": 2622,
      "Ġjoy": 2623,
      "inc": 2624,
      "Ġsecret": 2625,
      "Ġdeg": 2626,
      "Ġlangu": 2627,
      "ok": 2628,
      "iety": 2629,
      "Ġsister": 2630,
      "Ġsystem": 2631,
      "Ġought": 2632,
      "Ġslow": 2633,
      "bles": 2634,
      "ription": 2635,
      "ĠApril": 2636,
      "imate": 2637,
      "mn": 2638,
      "Ġfarm": 2639,
      "Ġfast": 2640,
      "Ġleaving": 2641,
      "ĠIsland": 2642,
      "ĠGovernment": 2643,
      "ctions": 2644,
      "Ġboat": 2645,
      "umb": 2646,
      "Ġgall": 2647,
      "Ġstanding": 2648,
      "erence": 2649,
      "yr": 2650,
      "Ġii": 2651,
      "Ġcharge": 2652,
      "Ġespecially": 2653,
      "min": 2654,
      "ĠUnited": 2655,
      "Ġobtained": 2656,
      "Ġengaged": 2657,
      "Ġopinion": 2658,
      "anced": 2659,
      "Ġmembers": 2660,
      "Ġcompl": 2661,
      "Ġder": 2662,
      "ishing": 2663,
      "ests": 2664,
      "ĠGerman": 2665,
      "acy": 2666,
      "Ġnoble": 2667,
      "oses": 2668,
      "Ġhop": 2669,
      "roy": 2670,
      "idered": 2671,
      "ĠTheir": 2672,
      "itution": 2673,
      "go": 2674,
      "Ġboard": 2675,
      "ask": 2676,
      "Ġdress": 2677,
      "Ġcentury": 2678,
      "Ġpleasure": 2679,
      "Ġsuppose": 2680,
      "lt": 2681,
      "Ġcertainly": 2682,
      "Ġparish": 2683,
      "jo": 2684,
      "erred": 2685,
      "ander": 2686,
      "ĠCourt": 2687,
      "aul": 2688,
      "Ġacres": 2689,
      "inner": 2690,
      "ĠDon": 2691,
      "ĠSch": 2692,
      "esty": 2693,
      "Ġsettle": 2694,
      "Ġspring": 2695,
      "Ġnumerous": 2696,
      "Ġfamil": 2697,
      "Ġdie": 2698,
      "umn": 2699,
      "ĠTur": 2700,
      "ingu": 2701,
      "ĠQueen": 2702,
      "Ġrail": 2703,
      "Ġplan": 2704,
      "ĠColonel": 2705,
      "Ġcry": 2706,
      "Ġappears": 2707,
      "Ġsense": 2708,
      "Ġhair": 2709,
      "ray": 2710,
      ".âĢĶ": 2711,
      "tt": 2712,
      "Ġmor": 2713,
      "ĠWhere": 2714,
      "Ġsal": 2715,
      "Ġcreat": 2716,
      "Ġsummer": 2717,
      "liament": 2718,
      "Ġinqu": 2719,
      "Ġneither": 2720,
      "Ġprincipal": 2721,
      ".]": 2722,
      "Ġoppos": 2723,
      "Ġoccupied": 2724,
      "IV": 2725,
      "Ġrepe": 2726,
      "ingly": 2727,
      "Ġconcl": 2728,
      "face": 2729,
      "ĠLou": 2730,
      "ĠBo": 2731,
      "Ġbreat": 2732,
      "ĠWar": 2733,
      "ĠSw": 2734,
      "Ġpartic": 2735,
      "uel": 2736,
      "Ġinfluence": 2737,
      "ĠCal": 2738,
      "Ġcult": 2739,
      "Ġfuture": 2740,
      "ushed": 2741,
      "ĠAmerican": 2742,
      "Ġlord": 2743,
      "Ġfight": 2744,
      "Ġsteam": 2745,
      "atic": 2746,
      "50": 2747,
      "Ġsettled": 2748,
      "Ġcontr": 2749,
      "Ġhonour": 2750,
      "Ġmeeting": 2751,
      "Ġadvant": 2752,
      "ĠCHAPTER": 2753,
      "uous": 2754,
      "Ġbott": 2755,
      "Ġnarrow": 2756,
      "sed": 2757,
      "Ġarch": 2758,
      "ĠIr": 2759,
      "Ġstrength": 2760,
      "Ġmagn": 2761,
      "GE": 2762,
      "Ġtow": 2763,
      "Ġaccept": 2764,
      "ency": 2765,
      "oyal": 2766,
      "Ġfle": 2767,
      "Ġcrowd": 2768,
      "Ġsole": 2769,
      "for": 2770,
      "ager": 2771,
      "Ġsuddenly": 2772,
      "dd": 2773,
      "Ġblue": 2774,
      "GH": 2775,
      "'ve": 2776,
      "Ġcondition": 2777,
      "ustr": 2778,
      "ĠOur": 2779,
      "Ġ40": 2780,
      "bly": 2781,
      "Ġcler": 2782,
      "Ġhost": 2783,
      "ror": 2784,
      "Ġorgan": 2785,
      "Ġbroad": 2786,
      "Ġburn": 2787,
      "ilar": 2788,
      "gress": 2789,
      "what": 2790,
      "ump": 2791,
      "ensive": 2792,
      "Ġdescend": 2793,
      "Ġav": 2794,
      "Ġworks": 2795,
      "Ġcapital": 2796,
      "Ġfifty": 2797,
      "âĸ": 2798,
      "orthern": 2799,
      "wise": 2800,
      "Ġhardly": 2801,
      "cing": 2802,
      "ching": 2803,
      "ending": 2804,
      "Ġthird": 2805,
      "aimed": 2806,
      "Ġpassing": 2807,
      "Ġcra": 2808,
      "ik": 2809,
      "Ġexec": 2810,
      "wh": 2811,
      "raph": 2812,
      "âĸł": 2813,
      "ĠStreet": 2814,
      "af": 2815,
      "Ġoper": 2816,
      "body": 2817,
      "Ġstation": 2818,
      "ĠMor": 2819,
      "ument": 2820,
      "Ġcru": 2821,
      "ĠRoman": 2822,
      "Ġwon": 2823,
      "elve": 2824,
      "bury": 2825,
      "Ġwid": 2826,
      "Ġbran": 2827,
      "Ġlower": 2828,
      "ĠAust": 2829,
      "ator": 2830,
      "Ġaf": 2831,
      "ĠItal": 2832,
      "Ġspo": 2833,
      "gar": 2834,
      "Ġentirely": 2835,
      "ĠFort": 2836,
      "Ġ33": 2837,
      "Ġbay": 2838,
      "ift": 2839,
      "Ġappl": 2840,
      "Ġconsidered": 2841,
      "ĠEast": 2842,
      "Ġcrown": 2843,
      "Ġloss": 2844,
      "Ġsociety": 2845,
      "Ġsides": 2846,
      "Ġpresence": 2847,
      "Ġcit": 2848,
      "ĠPop": 2849,
      "Ġinn": 2850,
      "ĠJack": 2851,
      "Ġmoved": 2852,
      "Ġguard": 2853,
      "Ġstran": 2854,
      "Ġreign": 2855,
      "ĠChe": 2856,
      "Ġ188": 2857,
      "Ġgen": 2858,
      "iced": 2859,
      "stone": 2860,
      "Ġgrave": 2861,
      "Ġcomes": 2862,
      "Ġpleasant": 2863,
      "Ġjourney": 2864,
      "Ġassist": 2865,
      "Ġlaugh": 2866,
      "Ġsafe": 2867,
      "ĠRiver": 2868,
      "Ġappointed": 2869,
      "outhern": 2870,
      "osing": 2871,
      "19": 2872,
      "ables": 2873,
      "ĠPrince": 2874,
      "Ġ32": 2875,
      "Ġforeign": 2876,
      "Ġgar": 2877,
      "Ġaction": 2878,
      "ĠDan": 2879,
      "Ġwritten": 2880,
      "Ġmentioned": 2881,
      "Ġdistant": 2882,
      "Ġmaj": 2883,
      "Ġpossession": 2884,
      "ĠHall": 2885,
      "Ġextreme": 2886,
      "ĠHist": 2887,
      "Ġeverything": 2888,
      "ĠColl": 2889,
      "Ġtrad": 2890,
      "Ġremains": 2891,
      "Ġweek": 2892,
      "Ġyouth": 2893,
      "Ġreb": 2894,
      "Ġfilled": 2895,
      "Ġ180": 2896,
      "Ġopposite": 2897,
      "Ġlies": 2898,
      "ĠFeb": 2899,
      "Ġvalue": 2900,
      "ites": 2901,
      "rop": 2902,
      "Ġoblig": 2903,
      "Ġpecul": 2904,
      "iles": 2905,
      "rif": 2906,
      "Ġgrad": 2907,
      "Ġsupposed": 2908,
      "ara": 2909,
      "lls": 2910,
      "Ġviol": 2911,
      "Ġiss": 2912,
      "Ġextent": 2913,
      "ĠJose": 2914,
      "ether": 2915,
      "Ġintell": 2916,
      "Ġobserved": 2917,
      "now": 2918,
      "Ġextra": 2919,
      "Ġdoing": 2920,
      "ĠAmerica": 2921,
      "Ġcapt": 2922,
      "Ġentrance": 2923,
      "Ġpaper": 2924,
      "Ġsoldiers": 2925,
      "ĠAle": 2926,
      "erc": 2927,
      "Ġnamed": 2928,
      "Ġwinter": 2929,
      "ĠEarl": 2930,
      "lend": 2931,
      "ĠAvhich": 2932,
      "athe": 2933,
      "Ġrepresent": 2934,
      "Ġdemand": 2935,
      "Ġwarm": 2936,
      "iant": 2937,
      "Ġnotice": 2938,
      "hest": 2939,
      "ĠParis": 2940,
      "eness": 2941,
      "Ġremember": 2942,
      "Ġconce": 2943,
      "Ġprivate": 2944,
      "Ġeduc": 2945,
      "bling": 2946,
      "nel": 2947,
      "aval": 2948,
      "Ġsomewhat": 2949,
      "Ġpopulation": 2950,
      "Ġkilled": 2951,
      "Ġ179": 2952,
      "Ġfra": 2953,
      "ĠIll": 2954,
      "Ġpassage": 2955,
      "ĠIre": 2956,
      "Ġ35": 2957,
      "ruction": 2958,
      "Ġnames": 2959,
      "AY": 2960,
      "nown": 2961,
      "Ġpath": 2962,
      "head": 2963,
      "Ġintrodu": 2964,
      "Ġtit": 2965,
      "ication": 2966,
      "eks": 2967,
      "ĠHam": 2968,
      "ĠEliz": 2969,
      "Ġfat": 2970,
      "Ġforest": 2971,
      "Ġsurface": 2972,
      "Ġexcell": 2973,
      "ĠIII": 2974,
      "Ġsave": 2975,
      "ĠSpan": 2976,
      "hib": 2977,
      "Ġpurcha": 2978,
      "lect": 2979,
      "itable": 2980,
      "ogn": 2981,
      "Ġroy": 2982,
      "30": 2983,
      "enced": 2984,
      "Ġlying": 2985,
      "Ġz": 2986,
      "Ġweak": 2987,
      "Ġsugg": 2988,
      "Ġimposs": 2989,
      "kes": 2990,
      "Ġdesign": 2991,
      "Ġtwelve": 2992,
      "Ġgiving": 2993,
      "Ġhealth": 2994,
      "Ġcloud": 2995,
      "Ġforty": 2996,
      "Ġknowledge": 2997,
      "Ġdim": 2998,
      "Ġwindow": 2999,
      "Ġcentre": 3000,
      "ivid": 3001,
      "ĠYet": 3002,
      "Ġminutes": 3003,
      "Ġgrow": 3004,
      "Ġchance": 3005,
      "Ġwaters": 3006,
      "Ġallowed": 3007,
      "Ġletters": 3008,
      "Ġsingle": 3009,
      "uary": 3010,
      "Ġmarriage": 3011,
      "Ġconcern": 3012,
      "Ġforms": 3013,
      "Ġrace": 3014,
      "rible": 3015,
      "Ġfirm": 3016,
      "ocks": 3017,
      "Ġtried": 3018,
      "Ġbless": 3019,
      "Ġcarry": 3020,
      "ĠJoseph": 3021,
      "Ġcircumstances": 3022,
      "ilst": 3023,
      "Ġmater": 3024,
      "EC": 3025,
      "Ġ34": 3026,
      "Ġstreets": 3027,
      "Ġearn": 3028,
      "clock": 3029,
      "oom": 3030,
      "Ġmilitary": 3031,
      "Ġsto": 3032,
      "Ġrain": 3033,
      "Ġdog": 3034,
      "Ġconvers": 3035,
      "chant": 3036,
      "Ġid": 3037,
      "Ġfru": 3038,
      "ĠMin": 3039,
      "ourage": 3040,
      "with": 3041,
      "Ġrise": 3042,
      "Ġdeser": 3043,
      "Ġexpected": 3044,
      "ĠLouis": 3045,
      "ĠDuke": 3046,
      "Ġmiddle": 3047,
      "oose": 3048,
      "Ġremoved": 3049,
      "Ġerected": 3050,
      "NT": 3051,
      "Ġdinner": 3052,
      "OT": 3053,
      "ĠHill": 3054,
      "Ġchair": 3055,
      "eds": 3056,
      "lished": 3057,
      "Ġstorm": 3058,
      "ĠHISTORY": 3059,
      "rest": 3060,
      "Ġwrong": 3061,
      "Ġstruck": 3062,
      "ufact": 3063,
      "Ġthoughts": 3064,
      "Ġsimilar": 3065,
      "umed": 3066,
      "ĠWil": 3067,
      "Ġsaying": 3068,
      "rison": 3069,
      "str": 3070,
      "Ġloved": 3071,
      "Ġbird": 3072,
      "hy": 3073,
      "ĠBay": 3074,
      "ĠPal": 3075,
      "ĠMont": 3076,
      "uge": 3077,
      "Ġladies": 3078,
      "Ġsquare": 3079,
      "Ġinstead": 3080,
      "Ġdanger": 3081,
      "Ġassem": 3082,
      "Ġado": 3083,
      "ically": 3084,
      "hel": 3085,
      "Ġadmir": 3086,
      "burg": 3087,
      "set": 3088,
      "Ġpet": 3089,
      "emb": 3090,
      "Ġmad": 3091,
      "ĠHigh": 3092,
      "ĠWho": 3093,
      "Ġtrouble": 3094,
      "11": 3095,
      "ĠWal": 3096,
      "Ġtry": 3097,
      "Ġroyal": 3098,
      "istr": 3099,
      "ashion": 3100,
      "Ġ36": 3101,
      "Ġfath": 3102,
      "Ġvessels": 3103,
      "Ġordered": 3104,
      "off": 3105,
      "Ġtemper": 3106,
      "Ġvast": 3107,
      "Ġweather": 3108,
      "Ġsnow": 3109,
      "Ġreach": 3110,
      "Ġgreatest": 3111,
      "Ġcou": 3112,
      "Ġyes": 3113,
      "Ġtears": 3114,
      "right": 3115,
      "ĠThus": 3116,
      "US": 3117,
      "Ġsituated": 3118,
      "wood": 3119,
      "Ġsmile": 3120,
      "Ġpure": 3121,
      "pan": 3122,
      "Ġ177": 3123,
      "Ġutter": 3124,
      "Ġtast": 3125,
      "Ġpress": 3126,
      "ĠMc": 3127,
      "ĠConst": 3128,
      "ĠMac": 3129,
      "Ġdetermined": 3130,
      "Ġhat": 3131,
      "Ġsucceeded": 3132,
      "Ġdepth": 3133,
      "Ġlat": 3134,
      "Ġdesire": 3135,
      "Ġapparent": 3136,
      "Ġlips": 3137,
      "ris": 3138,
      "Ġquarter": 3139,
      "ĠCrown": 3140,
      "Ġinteresting": 3141,
      "Ġartic": 3142,
      "26": 3143,
      "Ġvic": 3144,
      "Ġestablish": 3145,
      "Ġ50": 3146,
      "Ġdue": 3147,
      "Ġeasy": 3148,
      "Ġseat": 3149,
      "Ġgro": 3150,
      "Ġgrace": 3151,
      "Ġsens": 3152,
      "Ġband": 3153,
      "ĠIreland": 3154,
      "Ġauthority": 3155,
      "Ġsufficient": 3156,
      "Ġattend": 3157,
      "Ġpra": 3158,
      "Ġperform": 3159,
      "Ġimpossible": 3160,
      "ishes": 3161,
      "Ġrequired": 3162,
      "Ġclot": 3163,
      "ĠLie": 3164,
      "Ġdi": 3165,
      "Ġbecom": 3166,
      "iqu": 3167,
      "ĠâĢ¢": 3168,
      "Ġseeing": 3169,
      "Ġmakes": 3170,
      "III": 3171,
      "soci": 3172,
      "Ġge": 3173,
      "Ġlanguage": 3174,
      "Ġpun": 3175,
      "amb": 3176,
      "Ġorders": 3177,
      "Ġplant": 3178,
      "Ġwealth": 3179,
      "Ġstore": 3180,
      "28": 3181,
      "acher": 3182,
      "Ġtrem": 3183,
      "Ġexped": 3184,
      "iel": 3185,
      "Ġbeneath": 3186,
      "udd": 3187,
      "ata": 3188,
      "ĠOld": 3189,
      "Ġrecogn": 3190,
      "ĠMart": 3191,
      "unity": 3192,
      "west": 3193,
      "ĠSmith": 3194,
      "irth": 3195,
      "Ġbread": 3196,
      "ĠIndia": 3197,
      "Ġsilver": 3198,
      "ĠAh": 3199,
      "ino": 3200,
      "EM": 3201,
      "ĠCastle": 3202,
      "IA": 3203,
      "Ġheaven": 3204,
      "ĠâĢŀ": 3205,
      "ĠSy": 3206,
      "Ġlines": 3207,
      "Ġconduct": 3208,
      "aug": 3209,
      "Ġgarden": 3210,
      "ĠCompany": 3211,
      "ech": 3212,
      "Ġshar": 3213,
      "ĠIts": 3214,
      "Ġcomb": 3215,
      "Ġty": 3216,
      "Ġvain": 3217,
      "oon": 3218,
      "aled": 3219,
      "con": 3220,
      "Ġlake": 3221,
      "eral": 3222,
      "Ġquant": 3223,
      "Ġamongst": 3224,
      "Ġ37": 3225,
      "ĠRep": 3226,
      "Ġdiscovered": 3227,
      "Ġpos": 3228,
      "Ġeasily": 3229,
      "Ġtone": 3230,
      "Ġdistingu": 3231,
      "rence": 3232,
      "ai": 3233,
      "Ġfully": 3234,
      "Ġsilence": 3235,
      "ĠBra": 3236,
      "Ġnote": 3237,
      "vation": 3238,
      "ID": 3239,
      "Ġsoil": 3240,
      "Ġtree": 3241,
      "isters": 3242,
      "cip": 3243,
      "irst": 3244,
      "Ġpap": 3245,
      "Ġwhis": 3246,
      "Ġproved": 3247,
      "noon": 3248,
      "rid": 3249,
      "ĠVir": 3250,
      "ĠAf": 3251,
      "Ġexact": 3252,
      "ĠAlex": 3253,
      "Ġstands": 3254,
      "24": 3255,
      "iculty": 3256,
      "Ġopport": 3257,
      "ye": 3258,
      "ober": 3259,
      "Ġsupport": 3260,
      "under": 3261,
      "iction": 3262,
      "Ġbas": 3263,
      "Ġoriginal": 3264,
      "Ġgaz": 3265,
      "Ġign": 3266,
      "Ġtowns": 3267,
      "Ġsick": 3268,
      "ĠWhile": 3269,
      "Ġpeculiar": 3270,
      "com": 3271,
      "Ġdream": 3272,
      "ds": 3273,
      "Ġcele": 3274,
      "Ġexpress": 3275,
      "come": 3276,
      "ourn": 3277,
      "IF": 3278,
      "Ġestablished": 3279,
      "Ġpoet": 3280,
      "Ġmanufact": 3281,
      "Ġparticul": 3282,
      "iU": 3283,
      "ĠDavid": 3284,
      "Ġglass": 3285,
      "Ġexclaimed": 3286,
      "Ġ178": 3287,
      "ATION": 3288,
      "ĠAra": 3289,
      "ĠPeter": 3290,
      "ply": 3291,
      "!\"": 3292,
      "inent": 3293,
      "Ġdestroy": 3294,
      "Ġlives": 3295,
      "Ġhung": 3296,
      "Ġsus": 3297,
      "ĠTown": 3298,
      "Ġfathoms": 3299,
      "Ġsty": 3300,
      "Ġdifficulty": 3301,
      "ĠRome": 3302,
      "uit": 3303,
      "Ġcoal": 3304,
      "ĠScotland": 3305,
      "gypt": 3306,
      "hip": 3307,
      "Ġstrugg": 3308,
      "Ġforget": 3309,
      "ĠAvere": 3310,
      "ĠCounty": 3311,
      "Ġequal": 3312,
      "CE": 3313,
      "nes": 3314,
      "ĠGood": 3315,
      "ĠAnt": 3316,
      "Ġgrou": 3317,
      "ias": 3318,
      "Ġmusic": 3319,
      "lie": 3320,
      "Ġfixed": 3321,
      "Ġremarkable": 3322,
      "ulf": 3323,
      "Ġmodern": 3324,
      "Ġdraw": 3325,
      "ox": 3326,
      "25": 3327,
      "Ġdrawn": 3328,
      "va": 3329,
      "Ġhigher": 3330,
      "Ġserved": 3331,
      "ĠSuch": 3332,
      "mb": 3333,
      "ege": 3334,
      "Ġdescribed": 3335,
      "pond": 3336,
      "Ġcorner": 3337,
      "ERS": 3338,
      "uten": 3339,
      "ĠTom": 3340,
      "Ġofficer": 3341,
      "Ġanch": 3342,
      "ĠAA": 3343,
      "ĠEn": 3344,
      "Ġconqu": 3345,
      "Ġsail": 3346,
      "Ġstarted": 3347,
      "light": 3348,
      "arm": 3349,
      "Ġrend": 3350,
      "Ġseason": 3351,
      "antic": 3352,
      "LAND": 3353,
      "Ġcalm": 3354,
      "Ġrising": 3355,
      "Ġgrass": 3356,
      "Ġsuppl": 3357,
      "Ġdrink": 3358,
      "Ġcolour": 3359,
      "Ġinj": 3360,
      "Ġbeginning": 3361,
      "Ġcultiv": 3362,
      "lo": 3363,
      "Ġpresented": 3364,
      "Ġneare": 3365,
      "ĠOctober": 3366,
      "Ġspread": 3367,
      "Ġyourself": 3368,
      "Ġleading": 3369,
      "Ġcaused": 3370,
      "Ġlikely": 3371,
      "Ġdate": 3372,
      "Ġmut": 3373,
      "icate": 3374,
      "ibly": 3375,
      "uses": 3376,
      "Ġprogress": 3377,
      "Ġparticular": 3378,
      "ĠXX": 3379,
      "lin": 3380,
      "abeth": 3381,
      "Ġwestern": 3382,
      "Ġflowers": 3383,
      "ĠEgypt": 3384,
      "Ġsev": 3385,
      "itation": 3386,
      "Ġdread": 3387,
      "lected": 3388,
      "ĠIrish": 3389,
      "Ġstock": 3390,
      "Ġtownship": 3391,
      "Ġfigure": 3392,
      "Ġoffered": 3393,
      "Ġende": 3394,
      "Ġrout": 3395,
      "ĠBen": 3396,
      "Ġwalked": 3397,
      "Ġmemory": 3398,
      "Ġreceive": 3399,
      "ĠAve": 3400,
      "Ġnatives": 3401,
      "form": 3402,
      "ĠJust": 3403,
      "Ġobtain": 3404,
      "my": 3405,
      "Ġdrew": 3406,
      "Ġasc": 3407,
      "rupt": 3408,
      "gra": 3409,
      "ĠReg": 3410,
      "Ġbesides": 3411,
      "Ġbenef": 3412,
      "ny": 3413,
      "icated": 3414,
      "Ġnorthern": 3415,
      "hold": 3416,
      "OW": 3417,
      "known": 3418,
      "Ġsup": 3419,
      "Ġdry": 3420,
      "Ġemployed": 3421,
      "Ġetc": 3422,
      "Ġmeant": 3423,
      "orious": 3424,
      "Ġmort": 3425,
      "Ġlevel": 3426,
      "Ġgreatly": 3427,
      "Ġsplend": 3428,
      "iently": 3429,
      "cience": 3430,
      "Ġpubl": 3431,
      "Ġsimple": 3432,
      "Ġcloth": 3433,
      "ĠSu": 3434,
      "isions": 3435,
      "ĠNove": 3436,
      "Ġparent": 3437,
      "Ġexceed": 3438,
      "ees": 3439,
      "Ġâĸł": 3440,
      "look": 3441,
      "Ġwhatever": 3442,
      "Ġrunning": 3443,
      "ĠDuring": 3444,
      "Ġfool": 3445,
      "Ġbridge": 3446,
      "Ġafternoon": 3447,
      "Ġbold": 3448,
      "Ġpictures": 3449,
      "Ġreligious": 3450,
      "Ġapart": 3451,
      "Ġshot": 3452,
      "Ġlaws": 3453,
      "Ġdwell": 3454,
      "Ġcitiz": 3455,
      "Ġafford": 3456,
      "Ġcurious": 3457,
      "Ġcolon": 3458,
      "ĠLake": 3459,
      "Ġarrange": 3460,
      "ĠFrank": 3461,
      "Ġrare": 3462,
      "ĠLu": 3463,
      "Ġtender": 3464,
      "ese": 3465,
      "Ġemp": 3466,
      "Ġbanks": 3467,
      "ails": 3468,
      "Ġsteps": 3469,
      "gl": 3470,
      "eal": 3471,
      "Ġnews": 3472,
      "idently": 3473,
      "Ġgetting": 3474,
      "Ġnine": 3475,
      "Ġupper": 3476,
      "Ġeld": 3477,
      "Ġislands": 3478,
      "van": 3479,
      "aven": 3480,
      "Ġcab": 3481,
      "Ġships": 3482,
      "ĠEvery": 3483,
      "Ġpiece": 3484,
      "Ġmess": 3485,
      "ĠElizabeth": 3486,
      "erable": 3487,
      "peror": 3488,
      "ĠaU": 3489,
      "Ġmission": 3490,
      "mond": 3491,
      "Ġyield": 3492,
      "Ġcelebr": 3493,
      "umber": 3494,
      "Ġdistinct": 3495,
      "ada": 3496,
      "Ġfit": 3497,
      "Ġsav": 3498,
      "ica": 3499,
      "olution": 3500,
      "Ġgate": 3501,
      "Ġpassion": 3502,
      "Ġsitting": 3503,
      "Ġcover": 3504,
      "Ġmaterial": 3505,
      "bb": 3506,
      "ĠBlack": 3507,
      "ĠEsq": 3508,
      "ĠAnn": 3509,
      "Ġpreser": 3510,
      "pon": 3511,
      "Ġpref": 3512,
      "OO": 3513,
      "Ġagree": 3514,
      "rel": 3515,
      "Ġhandsome": 3516,
      "Ġsor": 3517,
      "ĠGovernor": 3518,
      "urb": 3519,
      "Ġadvantage": 3520,
      "Ġbearing": 3521,
      "Ġvent": 3522,
      "Ġterrit": 3523,
      "Ġ39": 3524,
      "Ġgives": 3525,
      "Ġdepend": 3526,
      "Ġprepared": 3527,
      "ington": 3528,
      "Ġwhilst": 3529,
      "ĠMag": 3530,
      "Ġexistence": 3531,
      "olly": 3532,
      "Ġjustice": 3533,
      "sec": 3534,
      "Ġhall": 3535,
      "ĠCoun": 3536,
      "raid": 3537,
      "Ġthrown": 3538,
      "Ġoutside": 3539,
      "zen": 3540,
      "Ġfashion": 3541,
      "Ġexcellent": 3542,
      "ĠSeptember": 3543,
      "Ġcho": 3544,
      "ĠArch": 3545,
      "Ġroof": 3546,
      "rig": 3547,
      "ĠMo": 3548,
      "ĠBer": 3549,
      "Ġdegree": 3550,
      "Ġcastle": 3551,
      "Ġrecord": 3552,
      "Ġreligion": 3553,
      "Ġwounded": 3554,
      "Ġsupply": 3555,
      "port": 3556,
      "Ġhy": 3557,
      "ĠHad": 3558,
      "velop": 3559,
      "Ġwanted": 3560,
      "hal": 3561,
      "Ġmel": 3562,
      "Ġ38": 3563,
      "mitted": 3564,
      "ĠLaw": 3565,
      "Ġpale": 3566,
      "Ġfrequently": 3567,
      "ĠJe": 3568,
      "ogether": 3569,
      "Ġaid": 3570,
      "Ġfun": 3571,
      "uding": 3572,
      "Ġordinary": 3573,
      "Ġfood": 3574,
      "Ġlearned": 3575,
      "Ġfol": 3576,
      "Ġunf": 3577,
      "Ġthinking": 3578,
      "rey": 3579,
      "Ġslowly": 3580,
      "Ġproduced": 3581,
      "Ġsymp": 3582,
      "Ġball": 3583,
      "ĠPat": 3584,
      "ora": 3585,
      "ĠPhilip": 3586,
      "Ġmerely": 3587,
      "Ġque": 3588,
      "Ġspent": 3589,
      "Ġmatters": 3590,
      "Ġsong": 3591,
      "Ġproud": 3592,
      "27": 3593,
      "ĠParliament": 3594,
      "Ġwitness": 3595,
      "Ġintended": 3596,
      "Ġtot": 3597,
      "otten": 3598,
      "Ġdecided": 3599,
      "Ġaffairs": 3600,
      "Ġobliged": 3601,
      "Ġchanged": 3602,
      "Ġyards": 3603,
      "Ġpolitical": 3604,
      "ague": 3605,
      "Ġtor": 3606,
      "inity": 3607,
      "Ġarrival": 3608,
      "Ġmiss": 3609,
      "Ġspace": 3610,
      "Ġpounds": 3611,
      "Ġheat": 3612,
      "ria": 3613,
      "ĠMer": 3614,
      "Ġgrat": 3615,
      "Ġtions": 3616,
      "Ġallow": 3617,
      "Ġprocess": 3618,
      "Ġcustom": 3619,
      "Ġhabit": 3620,
      "Ġmarked": 3621,
      "Ġsons": 3622,
      "omin": 3623,
      "reed": 3624,
      "Ġbitter": 3625,
      "Ġcop": 3626,
      "Ġappre": 3627,
      "lling": 3628,
      "Ġhang": 3629,
      "ĠMill": 3630,
      "Ġgrew": 3631,
      "Ġcaptain": 3632,
      "Ġcases": 3633,
      "Ġpoints": 3634,
      "bar": 3635,
      "ĠTwo": 3636,
      "bor": 3637,
      "Ġescape": 3638,
      "Ġcat": 3639,
      "Ġmember": 3640,
      "ĠTre": 3641,
      "Ġliter": 3642,
      "Ġaddition": 3643,
      "ait": 3644,
      "ograph": 3645,
      "Ġho": 3646,
      "Ġeastern": 3647,
      "utions": 3648,
      "Ġmaid": 3649,
      "Ġshown": 3650,
      "Åĵ": 3651,
      "utenant": 3652,
      "23": 3653,
      "Ġbroke": 3654,
      "ĠCity": 3655,
      "Ġbottom": 3656,
      "cks": 3657,
      "Ġterms": 3658,
      "Ġfeelings": 3659,
      "ĠPaul": 3660,
      "Ġcred": 3661,
      "Ġsorrow": 3662,
      "Ġevent": 3663,
      "Ġvirt": 3664,
      "Ġanxious": 3665,
      "Ġmarch": 3666,
      "Ġrid": 3667,
      "lly": 3668,
      "ades": 3669,
      "Ġeager": 3670,
      "ellow": 3671,
      "Ġkiss": 3672,
      ".*": 3673,
      "Ġsilent": 3674,
      "UL": 3675,
      "Ġwished": 3676,
      "irs": 3677,
      "Ġafraid": 3678,
      "worth": 3679,
      "illing": 3680,
      "Ġbooks": 3681,
      "Ġimper": 3682,
      "Ġsevere": 3683,
      "ĠWood": 3684,
      "Ġimportance": 3685,
      "Ġfro": 3686,
      "Ġbig": 3687,
      "ĠVirgin": 3688,
      "OUR": 3689,
      "ishment": 3690,
      "aret": 3691,
      "Ġbrave": 3692,
      "hens": 3693,
      "Ġreply": 3694,
      "fortun": 3695,
      "Ġevents": 3696,
      "Ġsouthern": 3697,
      "Ġsubst": 3698,
      "Ġheads": 3699,
      "40": 3700,
      "Ġunless": 3701,
      "Ġworthy": 3702,
      "Ġhighest": 3703,
      "Ġspeaking": 3704,
      "Ġlod": 3705,
      "Ġcheer": 3706,
      "ĠJanuary": 3707,
      "isl": 3708,
      "itz": 3709,
      "action": 3710,
      "Ġcaught": 3711,
      "ĠMajor": 3712,
      "Ġsour": 3713,
      "'re": 3714,
      "Ġdiss": 3715,
      "ĠIV": 3716,
      "Ġstat": 3717,
      "Ġwrote": 3718,
      "Ġsky": 3719,
      "Ġexerc": 3720,
      "Ġformerly": 3721,
      "Ġknows": 3722,
      "iments": 3723,
      "och": 3724,
      "ette": 3725,
      "ĠDece": 3726,
      "Ġusually": 3727,
      "Ġexpression": 3728,
      "Ġrange": 3729,
      "tered": 3730,
      "Ġhappened": 3731,
      "Ġdrawing": 3732,
      "Ġterm": 3733,
      "Ġthence": 3734,
      "zz": 3735,
      "cean": 3736,
      "Ġstraight": 3737,
      "Ġcrossed": 3738,
      "ially": 3739,
      "Ġendeav": 3740,
      "Ġindivid": 3741,
      "Avn": 3742,
      "fast": 3743,
      "Ġ100": 3744,
      "cis": 3745,
      "Ġquickly": 3746,
      "Ġmount": 3747,
      "Ġness": 3748,
      "Ġgentlemen": 3749,
      "Ġpit": 3750,
      "ĠSan": 3751,
      "Ġstones": 3752,
      "Ġearnest": 3753,
      "ĠAfric": 3754,
      "ĠGen": 3755,
      "EST": 3756,
      "ĠGreen": 3757,
      "cher": 3758,
      "Ġpicture": 3759,
      "Ġboys": 3760,
      "Ġreport": 3761,
      "Ġconsist": 3762,
      "Ġredu": 3763,
      "ĠHon": 3764,
      "ĠSund": 3765,
      "iance": 3766,
      "Ġhero": 3767,
      "EW": 3768,
      "ĠMarg": 3769,
      "hire": 3770,
      "ĠSal": 3771,
      "ĠFR": 3772,
      "Ġassoci": 3773,
      "ĠBel": 3774,
      "aken": 3775,
      "Ġcommer": 3776,
      "Ġtin": 3777,
      "Ġpor": 3778,
      "Ġwel": 3779,
      "ĠCong": 3780,
      "Ġstates": 3781,
      "Ġdoctor": 3782,
      "Ġshowed": 3783,
      "Ġdeclared": 3784,
      "Ġregular": 3785,
      "ailed": 3786,
      "atures": 3787,
      "ĠSamuel": 3788,
      "Ġadvance": 3789,
      "Ġ31": 3790,
      "Ġfier": 3791,
      "ĠSpain": 3792,
      "aces": 3793,
      "ĠJer": 3794,
      "ĠVol": 3795,
      "Ġthorough": 3796,
      "chan": 3797,
      "Ġstret": 3798,
      "Ġphys": 3799,
      "Ġfail": 3800,
      "Ġadvanced": 3801,
      "Ġsize": 3802,
      "ĠCam": 3803,
      "Ġexhib": 3804,
      "Ġfancy": 3805,
      "Ġturning": 3806,
      "Ġproceeded": 3807,
      "sey": 3808,
      "Ġclosed": 3809,
      "ĠCape": 3810,
      "Ġvisited": 3811,
      "Ġlooks": 3812,
      "Ġavo": 3813,
      "hod": 3814,
      "Ġ45": 3815,
      "ĠDun": 3816,
      "Ġfond": 3817,
      "ĠCath": 3818,
      "Ġleaves": 3819,
      "ĠNovember": 3820,
      "UT": 3821,
      "Ġconnected": 3822,
      "Ġbill": 3823,
      "igned": 3824,
      "Ġprevent": 3825,
      "Ġfal": 3826,
      "vi": 3827,
      "ĠHu": 3828,
      "Ġterrible": 3829,
      "Ġconsequence": 3830,
      "Ġmeasure": 3831,
      "Ġfallen": 3832,
      "Ġoffer": 3833,
      "icked": 3834,
      "aker": 3835,
      "Ġpersonal": 3836,
      "ĠMil": 3837,
      "Ġrule": 3838,
      "gment": 3839,
      "gel": 3840,
      "Ġtrain": 3841,
      "ains": 3842,
      "Ġlocal": 3843,
      "Ġtest": 3844,
      "Ġsuperior": 3845,
      "ĠLy": 3846,
      "Ġattract": 3847,
      "Ġtea": 3848,
      "Ġopportunity": 3849,
      "Ġbreath": 3850,
      "pet": 3851,
      "Ġbuildings": 3852,
      "Ġpleased": 3853,
      "ses": 3854,
      "Ġspecial": 3855,
      "Ġdism": 3856,
      "Ġdece": 3857,
      "ĠRE": 3858,
      "ĠLong": 3859,
      "Ġol": 3860,
      "Ġstopped": 3861,
      "asc": 3862,
      "Ġrough": 3863,
      "Ġharbour": 3864,
      "Ġrate": 3865,
      "Ġaver": 3866,
      "ILL": 3867,
      "Ġresidence": 3868,
      "ittee": 3869,
      "ĠBishop": 3870,
      "ounced": 3871,
      "Ġinformation": 3872,
      "oned": 3873,
      "Ġhosp": 3874,
      "Ġdivided": 3875,
      "Ġgod": 3876,
      "29": 3877,
      "Ġretreat": 3878,
      "Ġwait": 3879,
      "Ġconversation": 3880,
      "Ġspecies": 3881,
      "Ġuns": 3882,
      "ESS": 3883,
      "Ġcarriage": 3884,
      "ĠAre": 3885,
      "Ġaltogether": 3886,
      "Ġune": 3887,
      "Ġchiefly": 3888,
      "Ġfate": 3889,
      "Ġmoon": 3890,
      "Ġdaily": 3891,
      "Ġbelieved": 3892,
      "Ġjoined": 3893,
      "Ġevidently": 3894,
      "Ġwaiting": 3895,
      "Ġcommenced": 3896,
      "Ġregiment": 3897,
      "Ġthroughout": 3898,
      "uments": 3899,
      "Ġearli": 3900,
      "Ġanchor": 3901,
      "Ġvalu": 3902,
      "Ġaccompan": 3903,
      "OUNT": 3904,
      "Ġindividual": 3905,
      "ĠDes": 3906,
      "ĠWor": 3907,
      "Ġcontains": 3908,
      "Ġcolumn": 3909,
      "Ġevil": 3910,
      "rees": 3911,
      "Ġfloor": 3912,
      "Ġthreat": 3913,
      "bon": 3914,
      "Ġnumbers": 3915,
      "ico": 3916,
      "Ġsusp": 3917,
      "Ġburied": 3918,
      "Ġsteep": 3919,
      "Ġvan": 3920,
      "Ġnav": 3921,
      "ĠFirst": 3922,
      "aped": 3923,
      "Ġsolemn": 3924,
      "Ġwise": 3925,
      "olute": 3926,
      "ancing": 3927,
      "Ġspeed": 3928,
      "AST": 3929,
      "ned": 3930,
      "pelled": 3931,
      "ĠEven": 3932,
      "ĠMal": 3933,
      "ĠHel": 3934,
      "Ġloud": 3935,
      "Ġtaste": 3936,
      "ĠLat": 3937,
      "Ġfish": 3938,
      "Ġextensive": 3939,
      "ĠJud": 3940,
      "ĠDecember": 3941,
      "Ġhom": 3942,
      "Ġstyle": 3943,
      "Ġextend": 3944,
      "Ġprice": 3945,
      "ify": 3946,
      "Ġhath": 3947,
      "ĠLand": 3948,
      "Ġrent": 3949,
      "aU": 3950,
      "ourable": 3951,
      "ĠTH": 3952,
      "Ġincreased": 3953,
      "ĠProv": 3954,
      "Ġminister": 3955,
      "Ġabund": 3956,
      "Ġeducation": 3957,
      "Ġoccurred": 3958,
      "Ġwrite": 3959,
      "Ġgranted": 3960,
      "Ġbeside": 3961,
      "Ġpot": 3962,
      "igr": 3963,
      "Ġsmo": 3964,
      "Ġliberty": 3965,
      "Ġprove": 3966,
      "Ġdepos": 3967,
      "ĠRoyal": 3968,
      "ula": 3969,
      "ĠMany": 3970,
      "antry": 3971,
      "Ġrul": 3972,
      "Ġourselves": 3973,
      "asure": 3974,
      "Ġarg": 3975,
      "Ġrepeated": 3976,
      "Ġwear": 3977,
      "Ġspr": 3978,
      "Ġprec": 3979,
      "Ġgirls": 3980,
      "Ġproport": 3981,
      "Ġfly": 3982,
      "Ġfortune": 3983,
      "Ġ?'": 3984,
      "60": 3985,
      "Ġdescription": 3986,
      "Ġfing": 3987,
      "Ġdispl": 3988,
      "ĠOhio": 3989,
      "Ġspeech": 3990,
      "Ġevidence": 3991,
      "Ġtall": 3992,
      "Ġris": 3993,
      "ĠTe": 3994,
      "itor": 3995,
      "ĠPark": 3996,
      "ĠDel": 3997,
      "tw": 3998,
      "Ġdeli": 3999,
      "ĠSar": 4000,
      "Ġpopular": 4001,
      "ips": 4002,
      "ĠBrown": 4003,
      "Ġeat": 4004,
      "ĠMass": 4005,
      "SE": 4006,
      "ĠWhite": 4007,
      "Ġshare": 4008,
      "Ġaffection": 4009,
      "Ġur": 4010,
      "Ġperfectly": 4011,
      "Ġindepend": 4012,
      "Ġbreast": 4013,
      "appe": 4014,
      "ios": 4015,
      "can": 4016,
      "Ġrememb": 4017,
      "utch": 4018,
      "Ġsympath": 4019,
      "ĠAct": 4020,
      "Ġtitle": 4021,
      "ama": 4022,
      "Ġparties": 4023,
      "Ġbod": 4024,
      "rian": 4025,
      "pping": 4026,
      "Ġener": 4027,
      "Ġplease": 4028,
      "Ġminute": 4029,
      "ault": 4030,
      "lers": 4031,
      "omb": 4032,
      "Ġpossessed": 4033,
      "Ġaddress": 4034,
      "Ġ43": 4035,
      "ĠEll": 4036,
      "ĠYour": 4037,
      "asp": 4038,
      "Ġstated": 4039,
      "Ġbare": 4040,
      "rose": 4041,
      "Ġprevious": 4042,
      "ization": 4043,
      "Ġexperience": 4044,
      "ĠRed": 4045,
      "Ġcool": 4046,
      "erson": 4047,
      "lict": 4048,
      "Ġhistor": 4049,
      "Ġmerchant": 4050,
      "Ġuncle": 4051,
      "Ġcruel": 4052,
      "Ġentertain": 4053,
      "Ġpromise": 4054,
      "Ġsurprise": 4055,
      "Ġaut": 4056,
      "Ġsurrounded": 4057,
      "Ġrank": 4058,
      "hington": 4059,
      "ĠAmong": 4060,
      "Ġtax": 4061,
      "east": 4062,
      "ĠBet": 4063,
      "mense": 4064,
      "Ġguns": 4065,
      "Ġsake": 4066,
      "Ġaccompl": 4067,
      "ĠCorn": 4068,
      "ĠAN": 4069,
      "Ġbirth": 4070,
      "usted": 4071,
      "ocked": 4072,
      "olic": 4073,
      "Ġiv": 4074,
      "Ġrefused": 4075,
      "ĠScott": 4076,
      "Ġpride": 4077,
      "Ġinches": 4078,
      "Ġserious": 4079,
      "Ġrapidly": 4080,
      "Ġparticularly": 4081,
      "Ġsituation": 4082,
      "Ġprovided": 4083,
      "Ġcattle": 4084,
      "Ġwine": 4085,
      "Ġgoes": 4086,
      "Ġimm": 4087,
      "iring": 4088,
      "Ġshut": 4089,
      "Ġfem": 4090,
      "ators": 4091,
      "Ġfruit": 4092,
      "TS": 4093,
      "Ġsubjects": 4094,
      "Ġspoken": 4095,
      "Ġstar": 4096,
      "Ġfamous": 4097,
      "Ġthank": 4098,
      "Ġweeks": 4099,
      "Ġcompar": 4100,
      "Ġignor": 4101,
      "Ġinstance": 4102,
      "quis": 4103,
      "ads": 4104,
      "asons": 4105,
      "Ġgovern": 4106,
      "cture": 4107,
      "Ġcourage": 4108,
      "Ġintellig": 4109,
      "Ġduties": 4110,
      "Ġresem": 4111,
      "Ġinterv": 4112,
      "Ġcro": 4113,
      "ĠFred": 4114,
      "ids": 4115,
      "Ġdign": 4116,
      "NE": 4117,
      "Ġcand": 4118,
      "ĠPre": 4119,
      "Ġlot": 4120,
      "Ġdriven": 4121,
      "',": 4122,
      "irm": 4123,
      "Ġvig": 4124,
      "Ġkingdom": 4125,
      "Ġweight": 4126,
      "Ġhappiness": 4127,
      "Ġsite": 4128,
      "Ġsearch": 4129,
      "Ġforced": 4130,
      "ĠFrancis": 4131,
      "Ġworse": 4132,
      "Ġcurrent": 4133,
      "ruary": 4134,
      "ĠSpanish": 4135,
      "ĠNat": 4136,
      "Ġtakes": 4137,
      "ĠFOR": 4138,
      "Ġones": 4139,
      "Ġice": 4140,
      "Ġles": 4141,
      "Ġlabour": 4142,
      "Ġpieces": 4143,
      "Ġregion": 4144,
      "Ġinstru": 4145,
      "osen": 4146,
      "ĠMajesty": 4147,
      "Ġshout": 4148,
      "Ġimmense": 4149,
      "Ġtong": 4150,
      "Ġrivers": 4151,
      "Ġchap": 4152,
      "het": 4153,
      "Ġsharp": 4154,
      "Ġopening": 4155,
      "Ġring": 4156,
      "hant": 4157,
      "ĠAbout": 4158,
      "ĠMore": 4159,
      "Ġsought": 4160,
      "ĠInde": 4161,
      "Ġ44": 4162,
      "Ġgri": 4163,
      "Ġrob": 4164,
      "ĠMur": 4165,
      "Ġsaf": 4166,
      "Ġmagnific": 4167,
      "stood": 4168,
      "IAN": 4169,
      "ading": 4170,
      "Ġimprove": 4171,
      "urches": 4172,
      "Ġber": 4173,
      "Ġsoldier": 4174,
      "itive": 4175,
      "Ġep": 4176,
      "Ġpowers": 4177,
      "ayed": 4178,
      "Ġsacred": 4179,
      "Ġmarket": 4180,
      "Ġbord": 4181,
      "Ġdistinguished": 4182,
      "gu": 4183,
      "Ġcous": 4184,
      "Ġdivision": 4185,
      "Ġreven": 4186,
      "ena": 4187,
      "ĠSte": 4188,
      "Ġresist": 4189,
      "alled": 4190,
      "Ġburst": 4191,
      "Ġabsolute": 4192,
      "onn": 4193,
      "unk": 4194,
      "ĠJac": 4195,
      "ĠWin": 4196,
      "UM": 4197,
      "Ġpull": 4198,
      "Ġstranger": 4199,
      "omm": 4200,
      "Ġadmin": 4201,
      "ners": 4202,
      "Ġaston": 4203,
      "eper": 4204,
      "Ġstro": 4205,
      "Ġnational": 4206,
      "Ġsou": 4207,
      "uries": 4208,
      "Ġindu": 4209,
      "eg": 4210,
      "Ġindust": 4211,
      "five": 4212,
      "Ġcomposed": 4213,
      "ĠMed": 4214,
      "Ġholding": 4215,
      "AIN": 4216,
      "Ġboats": 4217,
      "attered": 4218,
      "ĠSunday": 4219,
      "Ġdevelop": 4220,
      "ĠYe": 4221,
      "Ġwinds": 4222,
      "Ġfields": 4223,
      "Ġotherwise": 4224,
      "Ġhonest": 4225,
      "dy": 4226,
      "kins": 4227,
      "ĠFebruary": 4228,
      "bted": 4229,
      "Ġsho": 4230,
      "Ġsuffered": 4231,
      "Ġbow": 4232,
      "OV": 4233,
      "Ġforces": 4234,
      "ĠCome": 4235,
      "Ġequally": 4236,
      "ĠHistory": 4237,
      "ulated": 4238,
      "ival": 4239,
      "ĠCle": 4240,
      "riet": 4241,
      "tering": 4242,
      "Ġsubsequ": 4243,
      "Ġaccompanied": 4244,
      "ĠWashington": 4245,
      "Ġdefe": 4246,
      "Ġenl": 4247,
      "Ġbeat": 4248,
      "Ġservant": 4249,
      "ĠThough": 4250,
      "Ġ60": 4251,
      "Ġfifteen": 4252,
      "Ġconven": 4253,
      "Ġcitizens": 4254,
      "icks": 4255,
      "Ġfortun": 4256,
      "Ġprospect": 4257,
      "Ġfeatures": 4258,
      "Ġlovely": 4259,
      "Ġspite": 4260,
      "ĠSim": 4261,
      "icy": 4262,
      "burgh": 4263,
      "aches": 4264,
      "ĠPri": 4265,
      "agg": 4266,
      "ĠCouncil": 4267,
      "Ġamid": 4268,
      "Ġlarger": 4269,
      "ĠPol": 4270,
      "ĠTra": 4271,
      "Ġcelebrated": 4272,
      "ĠIm": 4273,
      "ĠPresident": 4274,
      "Ġmat": 4275,
      "Ġfinally": 4276,
      "key": 4277,
      "Ġproduce": 4278,
      "Ġpartly": 4279,
      "Ġdangerous": 4280,
      "Ġapproach": 4281,
      "Ġfright": 4282,
      "Ġsorry": 4283,
      "ĠSand": 4284,
      "Ġpublished": 4285,
      "Ġbell": 4286,
      "Ġdoll": 4287,
      "Ġgradually": 4288,
      "thur": 4289,
      "Ġcommission": 4290,
      "ĠAcc": 4291,
      "place": 4292,
      "ĠMaster": 4293,
      "Ġneck": 4294,
      "Ġchannel": 4295,
      "Ġneighbourhood": 4296,
      "ELL": 4297,
      "Ġdisapp": 4298,
      "Ġorn": 4299,
      "ĠAvould": 4300,
      "ĠBefore": 4301,
      "arily": 4302,
      "Ġproposed": 4303,
      "ĠCat": 4304,
      "Ġhearts": 4305,
      "Ġmarry": 4306,
      "Ġsecure": 4307,
      "ĠDE": 4308,
      "Ġabsence": 4309,
      "Ġascend": 4310,
      "OP": 4311,
      "using": 4312,
      "Ġlaug": 4313,
      "Ġworked": 4314,
      "IM": 4315,
      "CT": 4316,
      "Ġresolved": 4317,
      "Ġvaluable": 4318,
      "ĠAc": 4319,
      "Ġstudy": 4320,
      "hall": 4321,
      "ĠCON": 4322,
      "Ġbore": 4323,
      "Ġdiscuss": 4324,
      "ĠPenn": 4325,
      "Ġregarded": 4326,
      "Ġ47": 4327,
      "ĠGreek": 4328,
      "inal": 4329,
      "Ġterritory": 4330,
      "Ġwriting": 4331,
      "Ġack": 4332,
      "ĠRom": 4333,
      "ĠUnion": 4334,
      "Ġtower": 4335,
      "ĠSer": 4336,
      "Ġpointed": 4337,
      "Ġcontro": 4338,
      "Ġprisoners": 4339,
      "essed": 4340,
      "Ġgrey": 4341,
      "ĠFer": 4342,
      "ĠTem": 4343,
      "Ġnations": 4344,
      "Ġapparently": 4345,
      "ĠStep": 4346,
      "Ġspirits": 4347,
      "Ġmajor": 4348,
      "Ġworking": 4349,
      "leg": 4350,
      "Ġanimals": 4351,
      "Ġservants": 4352,
      "ĠFather": 4353,
      "Ġundert": 4354,
      "ĠBes": 4355,
      "ims": 4356,
      "Ġsin": 4357,
      "Ġbeha": 4358,
      "Ġexpedition": 4359,
      "Ġcontaining": 4360,
      "Ġfalse": 4361,
      "Ġsixty": 4362,
      "ushing": 4363,
      "Ġwindows": 4364,
      "agement": 4365,
      "Ġkeeping": 4366,
      "Ġhighly": 4367,
      "Ġfamilies": 4368,
      "Ġtal": 4369,
      "ĠBritain": 4370,
      "Ġdam": 4371,
      "Ġtribes": 4372,
      "Ġlif": 4373,
      "Ġconvey": 4374,
      "umph": 4375,
      "Ġnoticed": 4376,
      "Ġcorre": 4377,
      "Ġrendered": 4378,
      "Ġfarmer": 4379,
      "ashed": 4380,
      "ĠBro": 4381,
      "Ġharm": 4382,
      "Ġestate": 4383,
      "Ġdestroyed": 4384,
      "Ġaband": 4385,
      "ĠBell": 4386,
      "Ġsword": 4387,
      "Ġamb": 4388,
      "Ġpan": 4389,
      "Ġpill": 4390,
      "Ġbase": 4391,
      "Ġfo": 4392,
      "Ġadj": 4393,
      "Ġexample": 4394,
      "Ġcaval": 4395,
      "Ġproject": 4396,
      "Ġlaughed": 4397,
      "Ġglory": 4398,
      "Ġroute": 4399,
      "ĠAng": 4400,
      "respond": 4401,
      "Ġspect": 4402,
      "Ġrights": 4403,
      "erate": 4404,
      "Ġwret": 4405,
      "Ġadopted": 4406,
      "Ġbox": 4407,
      "ourse": 4408,
      "Ġbrief": 4409,
      "Ġward": 4410,
      "Ġcarrying": 4411,
      "Ġprince": 4412,
      "ĠOff": 4413,
      "isher": 4414,
      "morrow": 4415,
      "36": 4416,
      "Ġactive": 4417,
      "Ġsettlement": 4418,
      "aced": 4419,
      "Ġtouch": 4420,
      "ification": 4421,
      "ĠItaly": 4422,
      "Ġham": 4423,
      "Ġtravel": 4424,
      "Ġglance": 4425,
      "wed": 4426,
      "Ġjudge": 4427,
      "Ġflo": 4428,
      "Ġwoods": 4429,
      "Ġhither": 4430,
      "Ġpage": 4431,
      "rank": 4432,
      "ari": 4433,
      "Ġble": 4434,
      "Ġsplendid": 4435,
      "Ġbelonging": 4436,
      "Ġacknow": 4437,
      "Ġears": 4438,
      "ĠPerhaps": 4439,
      "Ġacquaint": 4440,
      "Ġlux": 4441,
      "Ġgoods": 4442,
      "looking": 4443,
      "ĠMex": 4444,
      "acity": 4445,
      "Ġpreced": 4446,
      "Ġfreed": 4447,
      "Ġpalace": 4448,
      "Ġcompanion": 4449,
      "Ġfollows": 4450,
      "Ġsuffer": 4451,
      "Ġ....": 4452,
      "Ġiii": 4453,
      "Ġfault": 4454,
      "IES": 4455,
      "pton": 4456,
      "Ġprint": 4457,
      "Ġelected": 4458,
      "Ġvoy": 4459,
      "Ġmotion": 4460,
      "ĠKe": 4461,
      "inese": 4462,
      "enes": 4463,
      "Ġunfortun": 4464,
      "Ġpowerful": 4465,
      "Ġcere": 4466,
      "Ġgroup": 4467,
      "ĠDor": 4468,
      "Ġfaint": 4469,
      "Ġaged": 4470,
      "Ġbrown": 4471,
      "Ġhes": 4472,
      "Ġreser": 4473,
      "shire": 4474,
      "pered": 4475,
      "tis": 4476,
      "fl": 4477,
      "ras": 4478,
      "ĠVI": 4479,
      "ĠSur": 4480,
      "essor": 4481,
      "ability": 4482,
      "Ġfart": 4483,
      "nal": 4484,
      "Ġpi": 4485,
      "TON": 4486,
      "38": 4487,
      "Ġrejo": 4488,
      "Ġproc": 4489,
      "ago": 4490,
      "pected": 4491,
      "Ġproof": 4492,
      "Ġpractice": 4493,
      "ais": 4494,
      "icious": 4495,
      "Ġquantity": 4496,
      "aps": 4497,
      "Ġbrill": 4498,
      "Ġsimply": 4499,
      "ĠEuropean": 4500,
      "ĠSil": 4501,
      "Ġhunt": 4502,
      "enance": 4503,
      "ĠDec": 4504,
      "Ġpromised": 4505,
      "Ġquietly": 4506,
      "Ġattended": 4507,
      "ĠGree": 4508,
      "urally": 4509,
      "22": 4510,
      "Ġflag": 4511,
      "wick": 4512,
      "Ġgain": 4513,
      "Ġinterior": 4514,
      "Ġclean": 4515,
      "ule": 4516,
      "Ġphil": 4517,
      "Ġreve": 4518,
      "Ġthrew": 4519,
      "Ġblow": 4520,
      "otton": 4521,
      "Ġlear": 4522,
      "ipped": 4523,
      "Ġchosen": 4524,
      "Ġrelief": 4525,
      "ĠCamp": 4526,
      "ĠLittle": 4527,
      "ov": 4528,
      "Ġways": 4529,
      "ational": 4530,
      "hem": 4531,
      "Ġanimal": 4532,
      "Ġcolony": 4533,
      "Ġservices": 4534,
      "Ġgloom": 4535,
      "Ġshape": 4536,
      "Ġtide": 4537,
      "ARD": 4538,
      "Ġ..": 4539,
      "Ġfinding": 4540,
      "Ġsheep": 4541,
      "Ġsacrif": 4542,
      "ĠChan": 4543,
      "Ġconstit": 4544,
      "ĠCham": 4545,
      "Ġruins": 4546,
      "OG": 4547,
      "Ġstop": 4548,
      "Ġsovere": 4549,
      "Ġmoral": 4550,
      "Ġconfidence": 4551,
      "Ġunderstood": 4552,
      "gers": 4553,
      "Ġrooms": 4554,
      "ĠMark": 4555,
      "IGH": 4556,
      "ĠArthur": 4557,
      "Ġperce": 4558,
      "ky": 4559,
      "Ġtract": 4560,
      "ĠNever": 4561,
      "Ġbreakfast": 4562,
      "Ġinformed": 4563,
      "Ġjoin": 4564,
      "Ġbeds": 4565,
      "Ġgained": 4566,
      "ology": 4567,
      "ĠChinese": 4568,
      "cket": 4569,
      "isp": 4570,
      "Ġthro": 4571,
      "ISH": 4572,
      "Ġseries": 4573,
      "oles": 4574,
      "Ġblind": 4575,
      "ĠAlexander": 4576,
      "ĠSea": 4577,
      "Ġfleet": 4578,
      "ĠMount": 4579,
      "Ġ176": 4580,
      "Ġfinished": 4581,
      "Ġseek": 4582,
      "icip": 4583,
      "uing": 4584,
      "ainted": 4585,
      "Ġqual": 4586,
      "ĠSl": 4587,
      "ĠAT": 4588,
      "bey": 4589,
      "Ġcott": 4590,
      "Ġseized": 4591,
      "Ġsion": 4592,
      "Ġparents": 4593,
      "Ġchapel": 4594,
      "ĠMargaret": 4595,
      "Ġ49": 4596,
      "chief": 4597,
      "ption": 4598,
      "Ġunknown": 4599,
      "Ġworship": 4600,
      "OS": 4601,
      "Ġuseful": 4602,
      "athered": 4603,
      "Ġ48": 4604,
      "gs": 4605,
      "Ġdesired": 4606,
      "atory": 4607,
      "Ġsurround": 4608,
      "Ġdust": 4609,
      "Ġdouble": 4610,
      "Ġrender": 4611,
      "NG": 4612,
      "34": 4613,
      "osop": 4614,
      "etch": 4615,
      "bid": 4616,
      "iber": 4617,
      "Ġedge": 4618,
      "Ġconver": 4619,
      "ĠCra": 4620,
      "ode": 4621,
      "Ġreading": 4622,
      "ta": 4623,
      "AB": 4624,
      "Ġregret": 4625,
      "ĠTR": 4626,
      "ĠDick": 4627,
      "Ġdisappe": 4628,
      "ĠHeaven": 4629,
      "ĠJew": 4630,
      "Ġclergy": 4631,
      "ĠSociety": 4632,
      "Ġarran": 4633,
      "Ġefforts": 4634,
      "acon": 4635,
      "ĠPen": 4636,
      "ana": 4637,
      "istic": 4638,
      "Ġcliff": 4639,
      "Ġpriest": 4640,
      "Ġ175": 4641,
      "ĠGrand": 4642,
      "Ġnecessity": 4643,
      "Ġruns": 4644,
      "see": 4645,
      "asing": 4646,
      "Ġpity": 4647,
      "Ġwand": 4648,
      "Ġrang": 4649,
      "Ġagreed": 4650,
      "Ġattached": 4651,
      "Ġthin": 4652,
      "ĠLife": 4653,
      "Ġshel": 4654,
      "Ġdrive": 4655,
      "Ġcoff": 4656,
      "Ġgolden": 4657,
      "Ġserve": 4658,
      "Ġdare": 4659,
      "gest": 4660,
      "Ġeffort": 4661,
      "Ġunto": 4662,
      "atives": 4663,
      "Ġadmitted": 4664,
      "Ġofficial": 4665,
      "Ġau": 4666,
      "inite": 4667,
      "ĠStill": 4668,
      "inces": 4669,
      "ĠSchool": 4670,
      "ibility": 4671,
      "ldom": 4672,
      "Ġchurches": 4673,
      "Ġschools": 4674,
      "Ġdirected": 4675,
      "Ġprovince": 4676,
      "Ġforgotten": 4677,
      "iture": 4678,
      "ĠArt": 4679,
      "Ġbirds": 4680,
      "Ġhopes": 4681,
      "ĠAnother": 4682,
      "Ġflour": 4683,
      "Ġpil": 4684,
      "Ġyellow": 4685,
      "four": 4686,
      "Ġsen": 4687,
      "Ġgovernor": 4688,
      "Ġunivers": 4689,
      "ĠConf": 4690,
      "Ġmovement": 4691,
      "35": 4692,
      "Ġdeb": 4693,
      "Ġviews": 4694,
      "IFE": 4695,
      "Ġkindly": 4696,
      "END": 4697,
      "Ġprivile": 4698,
      "Ġsection": 4699,
      "Ġinstant": 4700,
      "Ġcontem": 4701,
      "Ġsafety": 4702,
      "Ġments": 4703,
      "ĠFar": 4704,
      "Ġfaces": 4705,
      "estic": 4706,
      "cked": 4707,
      "udes": 4708,
      "Ġfounded": 4709,
      "Ġbull": 4710,
      "ĠVal": 4711,
      "Ġvisible": 4712,
      "Ġobst": 4713,
      "ĠMars": 4714,
      "Ġcousin": 4715,
      "Ġflat": 4716,
      "37": 4717,
      "Ġ46": 4718,
      "Ġspecim": 4719,
      "mission": 4720,
      "ilities": 4721,
      "Ġproportion": 4722,
      "Ġpack": 4723,
      "Ġhab": 4724,
      "dl": 4725,
      "ua": 4726,
      "Ġpurposes": 4727,
      "Ġshadow": 4728,
      "ĠMess": 4729,
      "aunt": 4730,
      "Ġhid": 4731,
      "Ġbranch": 4732,
      "Ġmot": 4733,
      "Ġdifference": 4734,
      "Ġseated": 4735,
      "Ġgame": 4736,
      "Ġknight": 4737,
      "ception": 4738,
      "Ġexpressed": 4739,
      "more": 4740,
      "Ġclay": 4741,
      "Ġextended": 4742,
      "iest": 4743,
      "mouth": 4744,
      "Ġprosper": 4745,
      "itated": 4746,
      "ns": 4747,
      "Ġpapers": 4748,
      ",)": 4749,
      "Ġruin": 4750,
      "Ġwis": 4751,
      "Ġwed": 4752,
      "Ġbal": 4753,
      "Ġlately": 4754,
      "ĠPo": 4755,
      "Ġcountries": 4756,
      "Ġpred": 4757,
      "Ġthrone": 4758,
      "iast": 4759,
      "hew": 4760,
      "Ġfacts": 4761,
      "ĠWater": 4762,
      "Ġtrying": 4763,
      "Ġxx": 4764,
      "ĠVirginia": 4765,
      "Ġsuccessful": 4766,
      "OND": 4767,
      "Ġcorrespond": 4768,
      "ĠCOUNT": 4769,
      "rick": 4770,
      "Ġfailed": 4771,
      "Ġcouncil": 4772,
      "born": 4773,
      "ĠSax": 4774,
      "Ġarticles": 4775,
      "ĠON": 4776,
      "law": 4777,
      "omer": 4778,
      "Ġbree": 4779,
      "Ġexactly": 4780,
      "Ġgrown": 4781,
      "omp": 4782,
      "uts": 4783,
      "ĠPers": 4784,
      "Ġiu": 4785,
      "Ġdisappoint": 4786,
      "Ġexception": 4787,
      "Ġdarkness": 4788,
      "Ġcarefully": 4789,
      "Ġstriking": 4790,
      "Ġdischar": 4791,
      "Ġconsp": 4792,
      "Ġfarther": 4793,
      "Ġfamiliar": 4794,
      "Ġtaught": 4795,
      "fty": 4796,
      "ĠArab": 4797,
      "ĠSqu": 4798,
      "ĠTer": 4799,
      "Ġocean": 4800,
      "Ġintroduced": 4801,
      "ems": 4802,
      "Ġsocial": 4803,
      "You": 4804,
      "Ġinsc": 4805,
      "Ġ55": 4806,
      "Ġess": 4807,
      "Ġ1862": 4808,
      "standing": 4809,
      "ker": 4810,
      "ram": 4811,
      "Ġot": 4812,
      "ricult": 4813,
      "Ġsuggest": 4814,
      "ĠRussian": 4815,
      "Ġroads": 4816,
      "IX": 4817,
      "Ġshr": 4818,
      "ĠUpon": 4819,
      "Ġinnoc": 4820,
      "Ġtb": 4821,
      "ĠMel": 4822,
      "Ġincrease": 4823,
      "Ġgle": 4824,
      "Ġfer": 4825,
      "Ġholy": 4826,
      "Ġdefence": 4827,
      "Ġrepresented": 4828,
      "ORD": 4829,
      "Ġforming": 4830,
      "Ġfavourite": 4831,
      "Ġadvent": 4832,
      "IG": 4833,
      "Ġcompletely": 4834,
      "ĠMic": 4835,
      "Ġbranches": 4836,
      "AG": 4837,
      "ĠEmperor": 4838,
      "overy": 4839,
      "Ġens": 4840,
      "ĠWhe": 4841,
      "estone": 4842,
      "illy": 4843,
      "lands": 4844,
      "Ġclasses": 4845,
      "Ġremarked": 4846,
      "ique": 4847,
      "ĠOx": 4848,
      "Ġempt": 4849,
      "Ġmidst": 4850,
      "ALL": 4851,
      "Ġinterests": 4852,
      "gen": 4853,
      "irk": 4854,
      "Ġassistance": 4855,
      "Ġaware": 4856,
      "Ġsurprised": 4857,
      "umes": 4858,
      "Ġsan": 4859,
      "Ġdevoted": 4860,
      "ĠVer": 4861,
      "Ġflood": 4862,
      "Ġguide": 4863,
      "Ġmach": 4864,
      "ĠProt": 4865,
      "Ġretired": 4866,
      "illery": 4867,
      "ares": 4868,
      "ĠLike": 4869,
      "Ġdressed": 4870,
      "Ġwonderful": 4871,
      "ĠBost": 4872,
      "ĠWalter": 4873,
      "Ġwhence": 4874,
      "ĠAndrew": 4875,
      "Ġveget": 4876,
      "Ġcompelled": 4877,
      "Ġdying": 4878,
      "Ġcontrary": 4879,
      "ĠXV": 4880,
      "ĠProf": 4881,
      "ĠDid": 4882,
      "uls": 4883,
      "Ġsatisfied": 4884,
      "emed": 4885,
      "aks": 4886,
      "Ġ!'": 4887,
      "ributed": 4888,
      "lor": 4889,
      "Ġmurd": 4890,
      "Ġobjects": 4891,
      "ĠLove": 4892,
      "ĠHaving": 4893,
      "ĠBu": 4894,
      "Ġven": 4895,
      "Ġmagnificent": 4896,
      "utation": 4897,
      "Ġtemple": 4898,
      "Ġvers": 4899,
      "eter": 4900,
      "Ġvillages": 4901,
      "bridge": 4902,
      "Ġtreated": 4903,
      "Ġtalking": 4904,
      "ĠJes": 4905,
      "Ġexcit": 4906,
      "AK": 4907,
      "Ġnaturally": 4908,
      "Ġhence": 4909,
      "ĠJul": 4910,
      "Ġnearer": 4911,
      "asts": 4912,
      "Ġwelcome": 4913,
      "Ġfaithful": 4914,
      "Ġconstru": 4915,
      "Ġclimate": 4916,
      "ĠPoor": 4917,
      "Ġlose": 4918,
      "Ġstir": 4919,
      "ĠRob": 4920,
      "pes": 4921,
      "Ġquarters": 4922,
      "aked": 4923,
      "orable": 4924,
      "Ġvariety": 4925,
      "AGE": 4926,
      "Ġcup": 4927,
      "Ġmeasures": 4928,
      "Ġmult": 4929,
      "amm": 4930,
      "Ġtwice": 4931,
      "Ġenemies": 4932,
      "ĠPoint": 4933,
      "dra": 4934,
      "Ġcities": 4935,
      "Ġextraord": 4936,
      "alls": 4937,
      "ĠCent": 4938,
      "Ġcontent": 4939,
      "Ġarea": 4940,
      "Ġstruggle": 4941,
      "Ġgrowing": 4942,
      "Ġbrig": 4943,
      "Ġconsideration": 4944,
      "ĠLieutenant": 4945,
      "ĠHave": 4946,
      "ĠEr": 4947,
      "pri": 4948,
      "ĠThose": 4949,
      "ĠNov": 4950,
      "Ġdidn": 4951,
      "Ġhuge": 4952,
      "Ġgather": 4953,
      "ĠHugh": 4954,
      "Ġsurely": 4955,
      "Ġimmediate": 4956,
      "Ġprepar": 4957,
      "ĠDutch": 4958,
      "Ġox": 4959,
      "ĠThou": 4960,
      "Ġtur": 4961,
      "Ġrailway": 4962,
      "Ġrear": 4963,
      "Ġenterpr": 4964,
      "Ġstreams": 4965,
      "Ġtongue": 4966,
      "ĠCongress": 4967,
      "Ġpour": 4968,
      "Ġgrief": 4969,
      "ĠCapt": 4970,
      "Ġreef": 4971,
      "acle": 4972,
      "Ġhotel": 4973,
      "Ġsalt": 4974,
      "Ġdiscover": 4975,
      "90": 4976,
      "Ġseldom": 4977,
      "Ġbab": 4978,
      "aj": 4979,
      "ĠBoston": 4980,
      "ĠCollege": 4981,
      "ĠSat": 4982,
      "Ġfee": 4983,
      "rated": 4984,
      "Ġfan": 4985,
      "Ġpatri": 4986,
      "Ġreader": 4987,
      "Ġdirectly": 4988,
      "Ġescaped": 4989,
      "Ġdrove": 4990,
      "Ġsummit": 4991,
      "Ġprim": 4992,
      "ĠAR": 4993,
      "ĠCons": 4994,
      "Ġpeas": 4995,
      "Ġrequire": 4996,
      "Ġton": 4997,
      "ĠHol": 4998,
      "ivered": 4999,
      "riff": 5000,
      "ĠRock": 5001,
      "Ġdiam": 5002,
      "ĠKent": 5003,
      "Ġunable": 5004,
      "ĠAfrica": 5005,
      "Ġgathered": 5006,
      "Ġpair": 5007,
      "ĠAss": 5008,
      "Ġcontained": 5009,
      "80": 5010,
      "Ġtired": 5011,
      "Ġmeaning": 5012,
      "Ġaside": 5013,
      "Ġprotection": 5014,
      "ĠSpe": 5015,
      "Ġfill": 5016,
      "ĠRussia": 5017,
      "Ġstage": 5018,
      "ĠUnder": 5019,
      "ili": 5020,
      "ho": 5021,
      "ĠBre": 5022,
      "Ġgran": 5023,
      "Ġactually": 5024,
      "Ġceased": 5025,
      "Ġcatch": 5026,
      "inet": 5027,
      "itect": 5028,
      "Ġfalling": 5029,
      "Ġremembered": 5030,
      "ĠAvho": 5031,
      "Ġcavalry": 5032,
      "ension": 5033,
      "Ġelev": 5034,
      "Ġfierce": 5035,
      "Ġcrit": 5036,
      "ae": 5037,
      "Ġcredit": 5038,
      "Ġconscious": 5039,
      "ĠSus": 5040,
      "Ġexcitement": 5041,
      "Ġrequest": 5042,
      "Ġdollars": 5043,
      "OC": 5044,
      "Ġpersu": 5045,
      "rang": 5046,
      "Ġcrim": 5047,
      "Ġtrial": 5048,
      "ĠRes": 5049,
      "ĠEle": 5050,
      "Ġtreaty": 5051,
      "do": 5052,
      "Ġride": 5053,
      "ĠCont": 5054,
      "ĠHor": 5055,
      "hus": 5056,
      "Ġpressed": 5057,
      "orial": 5058,
      "Ġburning": 5059,
      "Ġages": 5060,
      "Ġshop": 5061,
      "ĠSav": 5062,
      "Ġconstitution": 5063,
      "Ġfreedom": 5064,
      "Ġhoped": 5065,
      "Ġsie": 5066,
      "Ġprisoner": 5067,
      "ĠDen": 5068,
      "Ġ200": 5069,
      "Ġrom": 5070,
      "Â£": 5071,
      "Ġpolicy": 5072,
      "ocr": 5073,
      "45": 5074,
      "Ġquestions": 5075,
      "olved": 5076,
      "gate": 5077,
      "Ġwatched": 5078,
      "Ġillustr": 5079,
      "Ġadvice": 5080,
      "Ġrude": 5081,
      "Ġmurm": 5082,
      "Ġaffect": 5083,
      "Ġstern": 5084,
      "ĠCap": 5085,
      "ĠAlb": 5086,
      "ardon": 5087,
      "Ġtruly": 5088,
      "Ġmighty": 5089,
      "ĠFair": 5090,
      "Ġconstant": 5091,
      "ĠVen": 5092,
      "Ġlog": 5093,
      "Ġprofession": 5094,
      "itch": 5095,
      "Ġconnection": 5096,
      "Ġze": 5097,
      "Ġflower": 5098,
      "don": 5099,
      "Ġrocky": 5100,
      "ĠNap": 5101,
      "Ġoccasionally": 5102,
      "Ġsurre": 5103,
      "Ġnavig": 5104,
      "Ġdistricts": 5105,
      "race": 5106,
      "Ġrode": 5107,
      "mir": 5108,
      "Ġmarble": 5109,
      "Ġ\\": 5110,
      "bro": 5111,
      "ev": 5112,
      "Ġmonarch": 5113,
      "aine": 5114,
      "Ġclim": 5115,
      "ĠIndeed": 5116,
      "sell": 5117,
      "Ġtotal": 5118,
      "ols": 5119,
      "ois": 5120,
      "ĠCatholic": 5121,
      "Ġarranged": 5122,
      "Ġlofty": 5123,
      "Ġjudgment": 5124,
      "ĠSecond": 5125,
      "ÃĨ": 5126,
      "Ġrelations": 5127,
      "Ġclothes": 5128,
      "EAR": 5129,
      "Ġbecomes": 5130,
      "Ġexcited": 5131,
      "Ġmal": 5132,
      "Ġ80": 5133,
      "Ġencl": 5134,
      "ĠThan": 5135,
      "Ġvictory": 5136,
      "ĠBook": 5137,
      "ĠMAR": 5138,
      "Ġjeal": 5139,
      "Ġsuit": 5140,
      "Ġmethod": 5141,
      "ĠMem": 5142,
      "ĠMartin": 5143,
      "ca": 5144,
      "ĠHal": 5145,
      "Ġcondu": 5146,
      "Ġsigh": 5147,
      "Ġowing": 5148,
      "CHAPTER": 5149,
      "Ġnon": 5150,
      "Ġ1864": 5151,
      "arted": 5152,
      "Ġintention": 5153,
      "Ġassured": 5154,
      "Ġdesert": 5155,
      "Ġknowing": 5156,
      "aming": 5157,
      "cast": 5158,
      "IP": 5159,
      "Ġincluding": 5160,
      "hael": 5161,
      "Ġweary": 5162,
      "Ġhospital": 5163,
      "Ġprayer": 5164,
      "Ġfrequent": 5165,
      "Ġarmed": 5166,
      "Ġflight": 5167,
      "otes": 5168,
      "Ġclouds": 5169,
      "Ġwidow": 5170,
      "aper": 5171,
      "Ġdoct": 5172,
      "oration": 5173,
      "46": 5174,
      "Ġshame": 5175,
      "Ġsympathy": 5176,
      "Ġfought": 5177,
      "Ġdull": 5178,
      "Ġrelie": 5179,
      "Ġpu": 5180,
      "Ġextraordinary": 5181,
      ".;": 5182,
      "Ġbought": 5183,
      "Ġstead": 5184,
      "uv": 5185,
      "ĠIllustr": 5186,
      "enny": 5187,
      "Ġangry": 5188,
      "Ġregul": 5189,
      "Ġstrict": 5190,
      "ucky": 5191,
      "Ġissued": 5192,
      "ological": 5193,
      "ĠFe": 5194,
      "Ġreck": 5195,
      "ĠWales": 5196,
      "Ġling": 5197,
      "Ġgrounds": 5198,
      "ANT": 5199,
      "esh": 5200,
      "ĠHoly": 5201,
      "Ġaccepted": 5202,
      "vy": 5203,
      "Ġbent": 5204,
      "iah": 5205,
      "Ġfled": 5206,
      "Ġqueen": 5207,
      "Ġfigures": 5208,
      "Ġcollect": 5209,
      "Ġ57": 5210,
      "ĠIS": 5211,
      "Ġsaved": 5212,
      "Ġworn": 5213,
      "Ġfurnished": 5214,
      "ĠVict": 5215,
      "Ġaunt": 5216,
      "Ġga": 5217,
      "Ġwriter": 5218,
      "Ġprocl": 5219,
      "ĠCur": 5220,
      "Ġexpense": 5221,
      "la": 5222,
      "ĠBesides": 5223,
      "Ġnice": 5224,
      "Ġglorious": 5225,
      "orous": 5226,
      "col": 5227,
      "Ġreturning": 5228,
      "Ġvicinity": 5229,
      "ĠDem": 5230,
      "Ġpicturesque": 5231,
      "RY": 5232,
      "ĠTurk": 5233,
      "Ġsufficiently": 5234,
      "Ġconsent": 5235,
      "Ġbodies": 5236,
      "Ġhurried": 5237,
      "Ġrecomm": 5238,
      "Ġsovereign": 5239,
      "48": 5240,
      "ĠEst": 5241,
      "Ġprotect": 5242,
      "Ġmarched": 5243,
      "Ġbears": 5244,
      "Ġextrem": 5245,
      "Ġshook": 5246,
      "Ġbusy": 5247,
      "Ġfert": 5248,
      "Ġprecip": 5249,
      "Ġlean": 5250,
      "greg": 5251,
      "ĠWhich": 5252,
      "Ġbatt": 5253,
      "nds": 5254,
      "Ġapplied": 5255,
      "add": 5256,
      "OD": 5257,
      "ĠMadame": 5258,
      "oria": 5259,
      "urity": 5260,
      "Ġcorrect": 5261,
      "Ġdeeply": 5262,
      "Ġempire": 5263,
      "Ġpurchased": 5264,
      "ĠStephen": 5265,
      "Ġpropriet": 5266,
      "Ġresp": 5267,
      "Ġevident": 5268,
      "Ġ70": 5269,
      "Ġmir": 5270,
      "Ġunited": 5271,
      "ĠDou": 5272,
      "Ġ/": 5273,
      "Ġlargest": 5274,
      "ĠJacob": 5275,
      "acious": 5276,
      "Ġtask": 5277,
      "ĠRog": 5278,
      "Ġindign": 5279,
      "Ġaccident": 5280,
      "Ġwestward": 5281,
      "eded": 5282,
      "Ġamuse": 5283,
      "oused": 5284,
      "ĠCommission": 5285,
      "ternal": 5286,
      "LD": 5287,
      "win": 5288,
      "39": 5289,
      "Ġunp": 5290,
      "ura": 5291,
      "lets": 5292,
      "Ġsolid": 5293,
      "enery": 5294,
      "iform": 5295,
      "Ġrecent": 5296,
      "Ġpossibly": 5297,
      "bell": 5298,
      "Ġcreature": 5299,
      "Ġsmoke": 5300,
      "ĠCro": 5301,
      "hedral": 5302,
      "Ġinterp": 5303,
      "rim": 5304,
      "Ġthrow": 5305,
      "amin": 5306,
      "ulous": 5307,
      "Ġpreserved": 5308,
      "ĠGermany": 5309,
      "Ġthoroughly": 5310,
      "Ġshows": 5311,
      "Ġremaining": 5312,
      "Ġestim": 5313,
      "Ġplate": 5314,
      "Ġsatisfaction": 5315,
      "Ġestablishment": 5316,
      "ĠNich": 5317,
      "Ġrecoll": 5318,
      "Ġantiqu": 5319,
      "cts": 5320,
      "Ġreduced": 5321,
      "arse": 5322,
      "Ġbatter": 5323,
      "ĠStra": 5324,
      "Ġjun": 5325,
      "Ġdaugh": 5326,
      "Ġcow": 5327,
      "Ġ167": 5328,
      "Ġvoyage": 5329,
      "cle": 5330,
      "ustomed": 5331,
      "ester": 5332,
      "Ġlanded": 5333,
      "Ġminds": 5334,
      "Ġhide": 5335,
      "rous": 5336,
      "Ġjealous": 5337,
      "Ġskill": 5338,
      "Ġsuffering": 5339,
      "Ġtribe": 5340,
      "Ġgay": 5341,
      "ĠAvhen": 5342,
      "Ġchamber": 5343,
      "Ġrevol": 5344,
      "Ġhearing": 5345,
      "Ġcompleted": 5346,
      "Ġoh": 5347,
      "Ġprinciples": 5348,
      "ĠPope": 5349,
      "Ġexposed": 5350,
      "Ġprovisions": 5351,
      "Ġshoot": 5352,
      "Ġ168": 5353,
      "Ġworst": 5354,
      "KS": 5355,
      "work": 5356,
      "ivity": 5357,
      "Ġaverage": 5358,
      "vent": 5359,
      "Ġinstit": 5360,
      "Ġdoors": 5361,
      "ĠHowever": 5362,
      "Ġvolume": 5363,
      "yer": 5364,
      "ĠFore": 5365,
      "theless": 5366,
      "Ġshade": 5367,
      "Ġaspect": 5368,
      "ĠRich": 5369,
      "ribe": 5370,
      "Ġwalking": 5371,
      "Ġseparate": 5372,
      "rem": 5373,
      "Ġ1861": 5374,
      "Ġresults": 5375,
      "ĠFreder": 5376,
      "ĠCa": 5377,
      "Ġunw": 5378,
      "Ġstrongly": 5379,
      "cest": 5380,
      "Ġdespair": 5381,
      "Ġcam": 5382,
      "Ġmiserable": 5383,
      "Ġsource": 5384,
      "Ġapproached": 5385,
      "Ġbringing": 5386,
      "ĠGar": 5387,
      "Ġremind": 5388,
      "Ġexperien": 5389,
      "ĠPass": 5390,
      "ĠThr": 5391,
      "LES": 5392,
      "Ġkinds": 5393,
      "ATE": 5394,
      "ĠInst": 5395,
      "ĠMen": 5396,
      "IE": 5397,
      "llen": 5398,
      "Ġdeparture": 5399,
      "Ġpreviously": 5400,
      "ĠThree": 5401,
      "ĠSk": 5402,
      "Ġbrilliant": 5403,
      "Ġprobable": 5404,
      "ĠHim": 5405,
      "yard": 5406,
      "Ġcalcul": 5407,
      "Ġwore": 5408,
      "ĠNEW": 5409,
      "Ġfalls": 5410,
      "Ġshores": 5411,
      "fle": 5412,
      "ĠNothing": 5413,
      "Ġ170": 5414,
      "pent": 5415,
      "Ġcust": 5416,
      "AU": 5417,
      "Ġore": 5418,
      "atively": 5419,
      "Ġfever": 5420,
      "Ġfriendly": 5421,
      "Ġtum": 5422,
      "abled": 5423,
      "Ġconsists": 5424,
      "Ġclosely": 5425,
      "Ġavoid": 5426,
      "Ġbelonged": 5427,
      "ĠThy": 5428,
      "Ġarchitect": 5429,
      "Ġlisten": 5430,
      "Ġeastward": 5431,
      "Ġwilling": 5432,
      "ĠMountain": 5433,
      "Ġascertain": 5434,
      "Ġinstr": 5435,
      "Ġviz": 5436,
      "Ġcouple": 5437,
      "Ġbecoming": 5438,
      "Ġaddressed": 5439,
      "Ġcontract": 5440,
      "illa": 5441,
      "Ġtouched": 5442,
      "enc": 5443,
      "ITH": 5444,
      "Ġaffair": 5445,
      "Ġarrest": 5446,
      "agon": 5447,
      "Ġputting": 5448,
      "engers": 5449,
      "Ġperpet": 5450,
      "Ġsurvey": 5451,
      "Ġsuspic": 5452,
      "Ġslaves": 5453,
      "mas": 5454,
      "Ġsul": 5455,
      "QU": 5456,
      "ĠSen": 5457,
      "Ġpp": 5458,
      "Ġmanif": 5459,
      "ĠJane": 5460,
      "Ġcommanded": 5461,
      "Ġsettlers": 5462,
      "arts": 5463,
      "Ġsem": 5464,
      "Ġpocket": 5465,
      "ĠAustral": 5466,
      "ĠDra": 5467,
      "ĠAnne": 5468,
      "ICAL": 5469,
      "Ġcorps": 5470,
      "Ġkindness": 5471,
      "happ": 5472,
      "erted": 5473,
      "rd": 5474,
      "Ġconstantly": 5475,
      "ĠSE": 5476,
      "Ġalive": 5477,
      "Ġcotton": 5478,
      "asions": 5479,
      "Ġrises": 5480,
      "Ġmud": 5481,
      "Ġinquir": 5482,
      "Ġsooner": 5483,
      "Ġbis": 5484,
      "Ġmajority": 5485,
      "Ġded": 5486,
      "Ġindul": 5487,
      "rant": 5488,
      "ĠDep": 5489,
      "Ġvolunt": 5490,
      "Ġsupplied": 5491,
      "Ġexha": 5492,
      "atre": 5493,
      "ĠTy": 5494,
      "ĠDev": 5495,
      "iece": 5496,
      "Ġagricult": 5497,
      "Ġgarrison": 5498,
      "Ġenorm": 5499,
      "ĠJap": 5500,
      "ĠHy": 5501,
      "Ġtain": 5502,
      "Ġsmaller": 5503,
      "ĠSecret": 5504,
      "ati": 5505,
      "Ġdomin": 5506,
      "ĠWm": 5507,
      "then": 5508,
      "Ġlone": 5509,
      "teenth": 5510,
      "Ġspend": 5511,
      "Ġsink": 5512,
      "Ġtons": 5513,
      "Ġphilosop": 5514,
      "Ġdesper": 5515,
      "Ġraise": 5516,
      "Ġrav": 5517,
      "sm": 5518,
      "onder": 5519,
      "seless": 5520,
      "Ġecc": 5521,
      "pher": 5522,
      "Ġextremely": 5523,
      "ding": 5524,
      "Ġenjoyed": 5525,
      "Ġpier": 5526,
      "Ġsumm": 5527,
      "ĠGold": 5528,
      "rupted": 5529,
      "Ġkeen": 5530,
      "64": 5531,
      "ĠCarol": 5532,
      "Ġexchan": 5533,
      "And": 5534,
      "Ġcontinue": 5535,
      "Ġstructure": 5536,
      "Ġobserv": 5537,
      "ĠLew": 5538,
      "ĠPrin": 5539,
      "Ġbegun": 5540,
      "ĠGil": 5541,
      "ĠOnly": 5542,
      "ĠRail": 5543,
      "Ġenthus": 5544,
      "Ġinfer": 5545,
      "Ġpasses": 5546,
      "ĠFour": 5547,
      "ĠHarry": 5548,
      "Ġcapable": 5549,
      "ĠEdition": 5550,
      "Ġscattered": 5551,
      "Ġ=": 5552,
      "eping": 5553,
      "Ġplayed": 5554,
      "ĠVOL": 5555,
      "ippi": 5556,
      "UN": 5557,
      "Ġcryst": 5558,
      "Ġframe": 5559,
      "Ġprinciple": 5560,
      "Ġtoward": 5561,
      "ingham": 5562,
      "ĠCanada": 5563,
      "Ġinclined": 5564,
      "Ġfare": 5565,
      "Ġshowing": 5566,
      "Ġchoice": 5567,
      "Ġmounted": 5568,
      "Ġdeck": 5569,
      "Ġaccord": 5570,
      "Ġmasses": 5571,
      "Ġdelay": 5572,
      "iii": 5573,
      "Ġcook": 5574,
      "ĠLeg": 5575,
      "Ġtomb": 5576,
      "Ġclearly": 5577,
      "Ġ_": 5578,
      "Ġrene": 5579,
      "Ġtriumph": 5580,
      "rows": 5581,
      "Ġwants": 5582,
      "'.": 5583,
      "Ġlegisl": 5584,
      "Ġcopper": 5585,
      "47": 5586,
      "Ġcharming": 5587,
      "Ġchanges": 5588,
      "eless": 5589,
      "Ġliked": 5590,
      "Ġideas": 5591,
      "Ġscenery": 5592,
      "Ġbos": 5593,
      "withstanding": 5594,
      "Ġ189": 5595,
      "Ġsupported": 5596,
      "Ġshelter": 5597,
      "ĠAL": 5598,
      "Ġsingular": 5599,
      "arling": 5600,
      "ĠRose": 5601,
      "Ġshoulder": 5602,
      "Ġinside": 5603,
      "anche": 5604,
      "lder": 5605,
      "Ġinterf": 5606,
      "Ġobey": 5607,
      "izing": 5608,
      "Ġscenes": 5609,
      "ĠLook": 5610,
      "ĠFROM": 5611,
      "Ġended": 5612,
      "Ġcompanions": 5613,
      "ĠOR": 5614,
      "Ġwaves": 5615,
      "Ġsmiled": 5616,
      "Ġsuggested": 5617,
      "Ġ1865": 5618,
      "inth": 5619,
      "Ġplenty": 5620,
      "Ġhitherto": 5621,
      "Ġcauses": 5622,
      "Ġfairly": 5623,
      "ĠWestern": 5624,
      "Ġsel": 5625,
      "Ġ169": 5626,
      "Ġengine": 5627,
      "Ġcommitted": 5628,
      "Ġ,,": 5629,
      "Ġdignity": 5630,
      "Ġgardens": 5631,
      "Ġimpression": 5632,
      "ĠChina": 5633,
      "Ġfingers": 5634,
      "Ġident": 5635,
      "Ġbrow": 5636,
      "Ġexecution": 5637,
      "ĠDiv": 5638,
      "Ġextending": 5639,
      "Ġtent": 5640,
      "vas": 5641,
      "Ġmines": 5642,
      "Ġmaintain": 5643,
      "ĠBoth": 5644,
      "Ġseparated": 5645,
      "ttle": 5646,
      "Ġutterly": 5647,
      "oAv": 5648,
      "Ġsecured": 5649,
      "water": 5650,
      "Ġful": 5651,
      "Ġentering": 5652,
      "Ġdaughters": 5653,
      "Ġcountenance": 5654,
      "Ġbelief": 5655,
      "Ġcenturies": 5656,
      "Ġmanners": 5657,
      "ixt": 5658,
      "Ġgently": 5659,
      "Ġinsp": 5660,
      "Ġreferred": 5661,
      "Ġelection": 5662,
      "mod": 5663,
      "ĠPR": 5664,
      "Ġformation": 5665,
      "ĠEdin": 5666,
      "Ġshoulders": 5667,
      "Ġ59": 5668,
      "Ġborne": 5669,
      "Ġimpl": 5670,
      "urd": 5671,
      "Ġdisposed": 5672,
      "Ġbenefit": 5673,
      "Ġfourth": 5674,
      "Ġric": 5675,
      "Ġcomfortable": 5676,
      "Ġdefend": 5677,
      "Ġgrie": 5678,
      "Ġcalling": 5679,
      "terday": 5680,
      "wich": 5681,
      "Ġtempor": 5682,
      "rived": 5683,
      "allel": 5684,
      "Ġpresents": 5685,
      "ĠPruss": 5686,
      "Ġexercise": 5687,
      "Ġacquaintance": 5688,
      "Ġmistake": 5689,
      "Ġcircle": 5690,
      "Ġdise": 5691,
      "Ġwretched": 5692,
      "Ġgenius": 5693,
      "Ġissue": 5694,
      "eder": 5695,
      "ĠHind": 5696,
      "Ġyours": 5697,
      "iny": 5698,
      "Ġslave": 5699,
      "Ġdifficulties": 5700,
      "alem": 5701,
      "Ġafore": 5702,
      "Ġindiff": 5703,
      "Ġoperations": 5704,
      "Ġplains": 5705,
      "idents": 5706,
      "Ġassembled": 5707,
      "ĠInt": 5708,
      "ĠConn": 5709,
      "ĠTrans": 5710,
      "nded": 5711,
      "hap": 5712,
      "ĠMus": 5713,
      "ĠEp": 5714,
      "Ġinvest": 5715,
      "Ġloose": 5716,
      "Ġmarks": 5717,
      "eding": 5718,
      "Ġarticle": 5719,
      "Ġornament": 5720,
      "SS": 5721,
      "Ġmyst": 5722,
      "ĠVan": 5723,
      "Ġanxiety": 5724,
      "Ġmode": 5725,
      "Ġcrew": 5726,
      "ĠItalian": 5727,
      "Ġcurios": 5728,
      "Ġmistress": 5729,
      "Ġchain": 5730,
      "how": 5731,
      "Ġcrime": 5732,
      "Ġsmooth": 5733,
      "Ġenergy": 5734,
      "chen": 5735,
      "ĠCross": 5736,
      "Ġcell": 5737,
      "Ġimagine": 5738,
      "Ġwooden": 5739,
      "Ġbishop": 5740,
      "onds": 5741,
      "Ġyounger": 5742,
      "ĠChap": 5743,
      "Ġdrag": 5744,
      "oos": 5745,
      "Ġkings": 5746,
      "Ġzeal": 5747,
      "Ġtoler": 5748,
      "verse": 5749,
      "Ġ75": 5750,
      "kin": 5751,
      "Ġsavage": 5752,
      "oqu": 5753,
      "Ġrecently": 5754,
      "Ġreward": 5755,
      "Ġwaited": 5756,
      "Ġtempt": 5757,
      "Ġfrag": 5758,
      "Ġunfortunate": 5759,
      "Ġnoise": 5760,
      "Ġ65": 5761,
      "Ġeleven": 5762,
      "Ġfatal": 5763,
      "Ġterror": 5764,
      "anch": 5765,
      "aign": 5766,
      "Ġmyster": 5767,
      "ĠRos": 5768,
      "Ġdropped": 5769,
      "geon": 5770,
      "Ġpainted": 5771,
      "Ġtimber": 5772,
      "Ġadmit": 5773,
      "ola": 5774,
      "ilton": 5775,
      "Ġrub": 5776,
      "ĠEach": 5777,
      "Ġdestruction": 5778,
      "Ġpresently": 5779,
      "Ġcentral": 5780,
      "ĠAgain": 5781,
      "Ġwaste": 5782,
      "Ġlest": 5783,
      "Ġeleg": 5784,
      "ĠBridge": 5785,
      "Ġreference": 5786,
      "oring": 5787,
      "Ġcord": 5788,
      "Ġfold": 5789,
      "ĠOl": 5790,
      "Ġeffects": 5791,
      "Ġlibr": 5792,
      "Ġthousands": 5793,
      "atched": 5794,
      "Ġsust": 5795,
      "Ġaccustomed": 5796,
      "ka": 5797,
      "ĠVery": 5798,
      "ĠMah": 5799,
      "ĠHoll": 5800,
      "Ġdoubtless": 5801,
      "ĠJapan": 5802,
      "ĠNature": 5803,
      "Ġ165": 5804,
      "ĠPAR": 5805,
      "62": 5806,
      "Ġunhapp": 5807,
      "Ġsale": 5808,
      "65": 5809,
      "Ġcollected": 5810,
      "Ġscre": 5811,
      "Ġelder": 5812,
      "Ġhabits": 5813,
      "aling": 5814,
      "Ġwatching": 5815,
      "Ġscience": 5816,
      "Ġnotes": 5817,
      "ĠDer": 5818,
      "Ġcoat": 5819,
      "Ġtho": 5820,
      "Ġmercy": 5821,
      "borough": 5822,
      "Ġexplain": 5823,
      "ĠStr": 5824,
      "rier": 5825,
      "Ġunion": 5826,
      "Ġdelicate": 5827,
      "Ġsprings": 5828,
      "ĠJones": 5829,
      "Ġassumed": 5830,
      "Ġwholly": 5831,
      "Ġpermitted": 5832,
      "Ġlaughing": 5833,
      "Ġseventy": 5834,
      "44": 5835,
      "Ġmurder": 5836,
      "33": 5837,
      "dale": 5838,
      "Ġmun": 5839,
      "olk": 5840,
      "ĠStan": 5841,
      "Ġlover": 5842,
      "Ġunex": 5843,
      "omen": 5844,
      "Ġsmiling": 5845,
      "edy": 5846,
      "istration": 5847,
      "Ġpron": 5848,
      "ĠAtl": 5849,
      "ctive": 5850,
      "cho": 5851,
      "Ġgrowth": 5852,
      "Ġrespons": 5853,
      "Ġderived": 5854,
      "ĠWy": 5855,
      "Ġdiscovery": 5856,
      "Ġrepro": 5857,
      "Ġannual": 5858,
      "ĠHard": 5859,
      "Ġatm": 5860,
      "ĠBa": 5861,
      "Ġming": 5862,
      "Ġpick": 5863,
      "adel": 5864,
      "Ġarose": 5865,
      "Ġaccordingly": 5866,
      "Ġ160": 5867,
      "Ġdozen": 5868,
      "Ġancl": 5869,
      "Ġabroad": 5870,
      "ĠBas": 5871,
      "rane": 5872,
      "orks": 5873,
      "ĠWall": 5874,
      "ĠDist": 5875,
      "Ġfriendship": 5876,
      "ailing": 5877,
      "Ġreported": 5878,
      "Ġcharged": 5879,
      "inced": 5880,
      "Ġtrace": 5881,
      "Ġdivine": 5882,
      "Ġpraise": 5883,
      "aints": 5884,
      "ĠSever": 5885,
      "Ġprecious": 5886,
      "ĠLIFE": 5887,
      "Ġapproaching": 5888,
      "Ġwishes": 5889,
      "Ġlic": 5890,
      "cester": 5891,
      "Ġwet": 5892,
      "ĠDaniel": 5893,
      "Ġconducted": 5894,
      "Ġconditions": 5895,
      "Ġdelivered": 5896,
      "Ġattacked": 5897,
      "Ġtermin": 5898,
      "Ġnovel": 5899,
      "ĠGard": 5900,
      "Ġfund": 5901,
      "Ġdesir": 5902,
      "Ġcommerce": 5903,
      "Ġwi": 5904,
      "Ġalter": 5905,
      "Ġauthorities": 5906,
      "ĠSince": 5907,
      "Ġfemale": 5908,
      "olas": 5909,
      "Ġqui": 5910,
      "aux": 5911,
      "Ġquality": 5912,
      "burn": 5913,
      "inson": 5914,
      "Ġrestored": 5915,
      "?'": 5916,
      "Ġartillery": 5917,
      "Ġintense": 5918,
      "Ġcommittee": 5919,
      "ui": 5920,
      "ĠAlice": 5921,
      "Ġremarks": 5922,
      "ĠENG": 5923,
      "ĠProtest": 5924,
      "Ġmoving": 5925,
      "Ġacts": 5926,
      "Ġhun": 5927,
      "ĠVII": 5928,
      "issippi": 5929,
      "Ġappropri": 5930,
      "Ġnorthward": 5931,
      "itate": 5932,
      "icial": 5933,
      "ĠNa": 5934,
      "Ġcommunication": 5935,
      "ulp": 5936,
      "ĠJohnson": 5937,
      "Ġcaut": 5938,
      "Ġcontrast": 5939,
      "INE": 5940,
      "ĠBed": 5941,
      "Ġclo": 5942,
      "Ġgates": 5943,
      "ĠCreek": 5944,
      "ilty": 5945,
      "Ġ42": 5946,
      "ĠSarah": 5947,
      "Ġfest": 5948,
      "Ġgrate": 5949,
      "ĠEmp": 5950,
      "Ġretain": 5951,
      "Ġuniform": 5952,
      "ĠPart": 5953,
      "Ġdeed": 5954,
      "lyn": 5955,
      "haw": 5956,
      "Ġactual": 5957,
      "Ġ150": 5958,
      "Ġquart": 5959,
      "Ġattempted": 5960,
      "ĠIsa": 5961,
      "Ġviolent": 5962,
      "Ġoath": 5963,
      "Ġcommence": 5964,
      "Ġbride": 5965,
      "ĠBurn": 5966,
      "Ġhonor": 5967,
      "ores": 5968,
      "Ġnarr": 5969,
      "Ġvirtue": 5970,
      "ĠGrant": 5971,
      "Ġ1863": 5972,
      "kind": 5973,
      "Ġtelling": 5974,
      "zy": 5975,
      "Ġtraveller": 5976,
      "MER": 5977,
      "father": 5978,
      "Ġtale": 5979,
      "ĠPap": 5980,
      "ĠOs": 5981,
      "Ġkill": 5982,
      "ĠSH": 5983,
      "Ġvac": 5984,
      "Ġmerc": 5985,
      "It": 5986,
      "Ġexisted": 5987,
      "ĠVIII": 5988,
      "Ġearlier": 5989,
      "Ġtalked": 5990,
      "Ġchiefs": 5991,
      "ential": 5992,
      "Ġpurchase": 5993,
      "Ġadjo": 5994,
      "Ġeverywhere": 5995,
      "aver": 5996,
      "Ġsell": 5997,
      "Ġmoments": 5998,
      "Ġdreadful": 5999,
      "ĠPac": 6000,
      "Ġbrothers": 6001,
      "Ġhumble": 6002,
      "Ġconsult": 6003,
      "Ġunus": 6004,
      "Ġease": 6005,
      "Ġclaims": 6006,
      "Ġrecon": 6007,
      "ums": 6008,
      "while": 6009,
      "Ġparliament": 6010,
      "Ġappreci": 6011,
      "ĠAlthough": 6012,
      "Ġgor": 6013,
      "Ġempty": 6014,
      "ij": 6015,
      "ĠCy": 6016,
      "Ġperformed": 6017,
      "ibus": 6018,
      "Ġmand": 6019,
      "Ġrushed": 6020,
      "Ġscale": 6021,
      "quar": 6022,
      "master": 6023,
      "Ġentit": 6024,
      "Ġdig": 6025,
      "vania": 6026,
      "Ġhousehold": 6027,
      "Ġsouthward": 6028,
      "Ġenormous": 6029,
      "ĠAy": 6030,
      "ĠVic": 6031,
      "Ġacted": 6032,
      "Ġconfined": 6033,
      "irty": 6034,
      "lessly": 6035,
      "ĠDay": 6036,
      "ĠMat": 6037,
      "ded": 6038,
      "Ġeighty": 6039,
      "wy": 6040,
      "bre": 6041,
      "Ġutmost": 6042,
      "Ġlegs": 6043,
      "Ġcareful": 6044,
      "Ġpatron": 6045,
      "ona": 6046,
      "Ġopposition": 6047,
      "Ġimpat": 6048,
      "Ġoil": 6049,
      "Ġemigr": 6050,
      "Ġreasons": 6051,
      "Ġfavor": 6052,
      "ĠGal": 6053,
      "Ġacquainted": 6054,
      "oore": 6055,
      "Ġrailroad": 6056,
      "Ġadmiration": 6057,
      "ĠBal": 6058,
      "elle": 6059,
      "ĠHaw": 6060,
      "Ġben": 6061,
      "ĠApp": 6062,
      "Ġlistened": 6063,
      "70": 6064,
      "line": 6065,
      "Ġshortly": 6066,
      "Ġsteamer": 6067,
      "iation": 6068,
      "Ġthri": 6069,
      "Ġoriginally": 6070,
      "mo": 6071,
      "iana": 6072,
      "ĠSP": 6073,
      "Ġsurv": 6074,
      "Ġhoriz": 6075,
      "Ġcolumns": 6076,
      "oleon": 6077,
      "Ġoffices": 6078,
      "Ġconclusion": 6079,
      "Ġoccasions": 6080,
      "ĠCL": 6081,
      "Ġthanks": 6082,
      "ĠMichael": 6083,
      "long": 6084,
      "za": 6085,
      "Ġbrick": 6086,
      "ĠHot": 6087,
      "Ġswell": 6088,
      "xed": 6089,
      "ĠBY": 6090,
      "Ġawful": 6091,
      "ĠRepublic": 6092,
      "Ġdomestic": 6093,
      "Ġdisci": 6094,
      "osure": 6095,
      "Ġneat": 6096,
      "Ġcontempt": 6097,
      "Ġolder": 6098,
      "leep": 6099,
      "Ġ58": 6100,
      "Ġlimits": 6101,
      "Ġbrain": 6102,
      "reme": 6103,
      "da": 6104,
      "Ġgreet": 6105,
      "ĠCHAP": 6106,
      "Ġbreaking": 6107,
      "ado": 6108,
      "ĠLee": 6109,
      "ĠYoung": 6110,
      "Ġdoc": 6111,
      "Ġpriests": 6112,
      "armed": 6113,
      "Ġconcerning": 6114,
      "49": 6115,
      "Ġwound": 6116,
      "ĠMAN": 6117,
      "Ġpause": 6118,
      "ĠGall": 6119,
      "eer": 6120,
      "ĠDoctor": 6121,
      "Ġcrossing": 6122,
      "Ġfired": 6123,
      "Ġindustry": 6124,
      "Ġancest": 6125,
      "66": 6126,
      "Ġil": 6127,
      "mark": 6128,
      "Ġdirections": 6129,
      "Ġdescended": 6130,
      "olid": 6131,
      "Ġeighteen": 6132,
      "bot": 6133,
      "Ġbarbar": 6134,
      "Ġouter": 6135,
      "Ġprem": 6136,
      "Ġmanufacture": 6137,
      "Ġ300": 6138,
      "Ġconsisted": 6139,
      "Ġfighting": 6140,
      "ĠAsh": 6141,
      "Ġcottage": 6142,
      "Ġagreeable": 6143,
      "ĠCOM": 6144,
      "Ġparallel": 6145,
      "Ġpardon": 6146,
      "Ġteeth": 6147,
      "Ġflesh": 6148,
      "Ġelect": 6149,
      "Ġlit": 6150,
      "ĠLo": 6151,
      "Ġchat": 6152,
      "Ġconcluded": 6153,
      "Ġsuccession": 6154,
      "Ġfame": 6155,
      "Ġconsisting": 6156,
      "Ġbeach": 6157,
      "Ġsed": 6158,
      "Ġdelightful": 6159,
      "Ġreform": 6160,
      "Ġdawn": 6161,
      "Ġatmosp": 6162,
      "ĠThrough": 6163,
      "enses": 6164,
      "Ġconfusion": 6165,
      "Ġflow": 6166,
      "after": 6167,
      "Ġpas": 6168,
      "ĠCOUNTY": 6169,
      "ĠRec": 6170,
      "IONS": 6171,
      "Ġportions": 6172,
      "Ġintellect": 6173,
      "Ġextends": 6174,
      "ĠCO": 6175,
      "ĠNapoleon": 6176,
      "Ġast": 6177,
      "ounce": 6178,
      "Ġvalleys": 6179,
      "Ġreaching": 6180,
      "Ġimpress": 6181,
      "ĠEdinburgh": 6182,
      "Ġyesterday": 6183,
      "miral": 6184,
      "Ġslop": 6185,
      "ĠSomet": 6186,
      "ĠSC": 6187,
      "Ġtransf": 6188,
      ".-": 6189,
      "Ġpolice": 6190,
      "ĠJackson": 6191,
      "eers": 6192,
      "SH": 6193,
      "Ġacknowled": 6194,
      "nat": 6195,
      "Ġbreadth": 6196,
      "TE": 6197,
      "Ġclerk": 6198,
      "Ġaccounts": 6199,
      "Ġtail": 6200,
      "ĠOxford": 6201,
      "Ġpractical": 6202,
      "ĠMississippi": 6203,
      "ste": 6204,
      "Ġregions": 6205,
      "Ġhorn": 6206,
      "ĠSecretary": 6207,
      "Ġperman": 6208,
      "Ġpursued": 6209,
      "Ġstores": 6210,
      "Ġrad": 6211,
      "Ġaltar": 6212,
      "ĠOther": 6213,
      "ĠPost": 6214,
      "Ġglo": 6215,
      "Ġupwards": 6216,
      "Ġplants": 6217,
      "Ġmans": 6218,
      "Ġsilk": 6219,
      "ipping": 6220,
      "ACE": 6221,
      "IRE": 6222,
      "ĠBaron": 6223,
      "Ġdemanded": 6224,
      "Ave": 6225,
      "Ġtransl": 6226,
      "ĠAccording": 6227,
      "ĠTemple": 6228,
      "Ġdil": 6229,
      "Ġalike": 6230,
      "inate": 6231,
      "Ġhate": 6232,
      "Ġinterested": 6233,
      "ĠSol": 6234,
      "Ġintelligence": 6235,
      "ĠPortug": 6236,
      "Ġschol": 6237,
      "BER": 6238,
      "Ġridge": 6239,
      "ĠUpper": 6240,
      "Ġstars": 6241,
      "32": 6242,
      "jud": 6243,
      "Ġaccomplished": 6244,
      "Ġsetting": 6245,
      "oop": 6246,
      "Ġwarri": 6247,
      "ĠMessrs": 6248,
      "Ġbosom": 6249,
      "Ġcultivated": 6250,
      "Ġclever": 6251,
      "Ġabsolutely": 6252,
      "Ġirreg": 6253,
      "Ġreadily": 6254,
      "Ġacquired": 6255,
      "low": 6256,
      "Ġnoon": 6257,
      "ician": 6258,
      "Ġplans": 6259,
      "pass": 6260,
      "Ġowner": 6261,
      "ĠMayor": 6262,
      "Ġabandoned": 6263,
      "Ġdance": 6264,
      "Ġthunder": 6265,
      "Ġslightly": 6266,
      "Ġconfess": 6267,
      "Ġdistress": 6268,
      "Ġemer": 6269,
      "Ġcareer": 6270,
      "ange": 6271,
      "ĠNorman": 6272,
      "Ġdetails": 6273,
      "Ġaven": 6274,
      "mes": 6275,
      "ĠHelen": 6276,
      "ĠJos": 6277,
      "Ġlimestone": 6278,
      "ĠBenj": 6279,
      "LY": 6280,
      "Ġcontrol": 6281,
      "Ġance": 6282,
      "Ġcheek": 6283,
      "Ġcoffee": 6284,
      "fall": 6285,
      "ĠMost": 6286,
      "ĠIND": 6287,
      "Ġloving": 6288,
      "Ġselves": 6289,
      "No": 6290,
      "Ġwhispered": 6291,
      "eries": 6292,
      "Ġcopy": 6293,
      "Ġ.....": 6294,
      "urbed": 6295,
      "Ġsiege": 6296,
      "Ġleads": 6297,
      "ros": 6298,
      "uk": 6299,
      "Ġconcerned": 6300,
      "Ġlikewise": 6301,
      "Ġfil": 6302,
      "Ġft": 6303,
      "Ġalarm": 6304,
      "Ġguilty": 6305,
      "Ġbrid": 6306,
      "Ġannoy": 6307,
      "Ġhollow": 6308,
      "ĠBill": 6309,
      "oln": 6310,
      "Ġcrowded": 6311,
      "Ġmars": 6312,
      "Ġdw": 6313,
      "fts": 6314,
      "usive": 6315,
      "inds": 6316,
      "ĠFri": 6317,
      "Ġanticip": 6318,
      "Ġrum": 6319,
      "Ġrival": 6320,
      "ĠSpani": 6321,
      "Ġindependent": 6322,
      "Ġcreated": 6323,
      "lection": 6324,
      "Ġsche": 6325,
      "Ġaccommod": 6326,
      "Ġsouls": 6327,
      "Ġlimited": 6328,
      "Ġrecords": 6329,
      "icable": 6330,
      "Ġodd": 6331,
      "ĠAvhat": 6332,
      "arth": 6333,
      "achment": 6334,
      "Ġpatient": 6335,
      "Ġuncom": 6336,
      "aud": 6337,
      "syl": 6338,
      "iable": 6339,
      "ĠConstant": 6340,
      "Ġbath": 6341,
      "Ġmart": 6342,
      "Ġcondem": 6343,
      "ĠMos": 6344,
      "aved": 6345,
      "ĠCharl": 6346,
      "ĠSum": 6347,
      "ground": 6348,
      "ella": 6349,
      "ashing": 6350,
      "ĠEt": 6351,
      "bac": 6352,
      "ĠInf": 6353,
      "Ġdoctr": 6354,
      "Ġelsewhere": 6355,
      "ENTS": 6356,
      "OH": 6357,
      "inois": 6358,
      "UE": 6359,
      "abel": 6360,
      "Ġsubs": 6361,
      "Ġcher": 6362,
      "Ġlearning": 6363,
      "ĠHo": 6364,
      "Ġfinest": 6365,
      "Ġexcess": 6366,
      "Ġlun": 6367,
      "Ġexplained": 6368,
      "Ġcircumstance": 6369,
      "ĠSant": 6370,
      "Ġtreasure": 6371,
      "ĠLucy": 6372,
      "ga": 6373,
      "Ġstatement": 6374,
      "Ġtells": 6375,
      "Ġnearest": 6376,
      "Ġgaze": 6377,
      "ĠGrace": 6378,
      "ĠBank": 6379,
      "Ġprompt": 6380,
      "istry": 6381,
      "Ġner": 6382,
      "ITY": 6383,
      "Ġspark": 6384,
      "Ġnur": 6385,
      "amped": 6386,
      "ĠColumb": 6387,
      "Ġcuriosity": 6388,
      "Ġlights": 6389,
      "Ġneeded": 6390,
      "cel": 6391,
      "Ġta": 6392,
      "Ġvel": 6393,
      "Ġscorn": 6394,
      "Ġchoose": 6395,
      "ensions": 6396,
      "Ġtrack": 6397,
      "icity": 6398,
      "Ġsadd": 6399,
      "pended": 6400,
      "ĠWel": 6401,
      "Ġwre": 6402,
      "olis": 6403,
      "Ġgrain": 6404,
      "Ġspare": 6405,
      "tle": 6406,
      "Ġrow": 6407,
      "Ġmisery": 6408,
      "Ġheir": 6409,
      "Ġadorn": 6410,
      "rors": 6411,
      "Ġcheerful": 6412,
      "Ġarrangement": 6413,
      "Ġdogs": 6414,
      "--": 6415,
      "Ġtbs": 6416,
      "Ġclaimed": 6417,
      "Ġmostly": 6418,
      "Ġstrangers": 6419,
      "Ġteacher": 6420,
      "Ġproceedings": 6421,
      "THER": 6422,
      "Ġlocated": 6423,
      "Ġelevation": 6424,
      "hill": 6425,
      "ĠWard": 6426,
      "Ġvoices": 6427,
      "ouri": 6428,
      "ĠUnivers": 6429,
      "ĠFlore": 6430,
      "500": 6431,
      "ĠEX": 6432,
      "iary": 6433,
      "Ġenabled": 6434,
      "ĠRem": 6435,
      "Ġdisturb": 6436,
      "Ġsigns": 6437,
      "wall": 6438,
      "Ġ56": 6439,
      "Ġoccupation": 6440,
      "Ġenterprise": 6441,
      "Ġ41": 6442,
      "42": 6443,
      "Ġmanaged": 6444,
      "Ġprovinces": 6445,
      "Ġunm": 6446,
      "ĠIslands": 6447,
      "chie": 6448,
      "Ġcontinent": 6449,
      "Ġdesol": 6450,
      "Ġafforded": 6451,
      "ĠPennsyl": 6452,
      "Ġgift": 6453,
      "Ġexert": 6454,
      "ita": 6455,
      "Ġbreeze": 6456,
      "/.": 6457,
      "Ġintim": 6458,
      "ĠChief": 6459,
      "Ġgenerous": 6460,
      "esc": 6461,
      "vol": 6462,
      "Ġpastor": 6463,
      "Ġexceedingly": 6464,
      "Ġinnocent": 6465,
      "ĠAtt": 6466,
      "Ġbuy": 6467,
      "Ġsex": 6468,
      "ante": 6469,
      "Ġexplan": 6470,
      "houses": 6471,
      "berg": 6472,
      "ĠLow": 6473,
      "Ġcampaign": 6474,
      "agues": 6475,
      "ĠÂ§": 6476,
      "Ġsummon": 6477,
      "ĠLinc": 6478,
      "Ġwing": 6479,
      "ieur": 6480,
      "Ġchapter": 6481,
      "Ġ67": 6482,
      "oys": 6483,
      "enger": 6484,
      "ĠGRE": 6485,
      "Ġfoolish": 6486,
      "held": 6487,
      "Ġadvantages": 6488,
      "Ġtort": 6489,
      "OME": 6490,
      "ĠWould": 6491,
      "Ġstrike": 6492,
      "Ġopinions": 6493,
      "Ġdisappeared": 6494,
      "Ġresting": 6495,
      "Ġtroubles": 6496,
      "Ġentitled": 6497,
      "ĠLanc": 6498,
      "ava": 6499,
      "UST": 6500,
      "Ġtradition": 6501,
      "irmed": 6502,
      "ĠFle": 6503,
      "Ġwisdom": 6504,
      "ugg": 6505,
      "Ġresour": 6506,
      "Ġawa": 6507,
      "Ġoperation": 6508,
      "ĠTor": 6509,
      "ĠFin": 6510,
      "Ġbones": 6511,
      "Ġknees": 6512,
      "Ġdimin": 6513,
      "Ġswept": 6514,
      "ĠProfessor": 6515,
      "Ġtu": 6516,
      "Ġthereof": 6517,
      "anks": 6518,
      "Ġfortress": 6519,
      "URE": 6520,
      "rog": 6521,
      "ĠMexico": 6522,
      "itia": 6523,
      "Ġlanding": 6524,
      "Ġinferior": 6525,
      "Ġpages": 6526,
      "CHE": 6527,
      "Ġblank": 6528,
      "Ġinstantly": 6529,
      "ĠEastern": 6530,
      "Ġlonely": 6531,
      "Ġwicked": 6532,
      "Ġmixed": 6533,
      "Ġcontempl": 6534,
      "Ġped": 6535,
      "Ġgallant": 6536,
      "Ġdemon": 6537,
      "Ġaim": 6538,
      "Ġyard": 6539,
      "Ġcolonies": 6540,
      "ige": 6541,
      "amation": 6542,
      "Ġinduced": 6543,
      "ĠSher": 6544,
      "ĠLincoln": 6545,
      "Ġobserve": 6546,
      "Ġsurrounding": 6547,
      "Ġrebell": 6548,
      "ĠLewis": 6549,
      "Ġstories": 6550,
      "Ġconstructed": 6551,
      "owa": 6552,
      "ĠPle": 6553,
      "ĠHead": 6554,
      "Ġpow": 6555,
      "Ġdebt": 6556,
      "pson": 6557,
      "vest": 6558,
      "Yes": 6559,
      "ĠRh": 6560,
      "ican": 6561,
      "Ġcaptured": 6562,
      "ĠRal": 6563,
      "ĠAdmiral": 6564,
      "Ġsubsequently": 6565,
      "MAN": 6566,
      "ĠLE": 6567,
      "ĠIllinois": 6568,
      "UB": 6569,
      "Ġlighted": 6570,
      "Ġvision": 6571,
      "acles": 6572,
      "Ġcompre": 6573,
      "lying": 6574,
      "ĠTay": 6575,
      "ulse": 6576,
      "Ġnewsp": 6577,
      "said": 6578,
      "igs": 6579,
      "Ġcabin": 6580,
      "ĠSpring": 6581,
      "Ġremo": 6582,
      "Ġtour": 6583,
      "Ġtravelling": 6584,
      "osal": 6585,
      "ĠÃĨ": 6586,
      "Ġloyal": 6587,
      "Ġmessage": 6588,
      "OLD": 6589,
      "Ġnoted": 6590,
      "usc": 6591,
      "Ġcharm": 6592,
      "asped": 6593,
      "erer": 6594,
      "Ġexperienced": 6595,
      "Ġadjoining": 6596,
      "Ġunhappy": 6597,
      "Ġaccompany": 6598,
      "icient": 6599,
      "Ġvest": 6600,
      "ĠDar": 6601,
      "urance": 6602,
      "Ġends": 6603,
      "Ġsupplies": 6604,
      "Ġreceiving": 6605,
      "Ġextremity": 6606,
      "Ġresolution": 6607,
      "Ġ77": 6608,
      "Ġbetray": 6609,
      "Ġthinks": 6610,
      "Ġsinging": 6611,
      "esses": 6612,
      "Ġcounties": 6613,
      "Ġearliest": 6614,
      "Ġcommercial": 6615,
      "Ġexcuse": 6616,
      "ĠAssem": 6617,
      "ĠTurkish": 6618,
      "tts": 6619,
      "ĠBE": 6620,
      "Ġavail": 6621,
      "Ġstick": 6622,
      "Ġcollection": 6623,
      "rious": 6624,
      "Ġvisitors": 6625,
      "orton": 6626,
      "ĠAunt": 6627,
      "ih": 6628,
      "Ġfinal": 6629,
      "Ġsandy": 6630,
      "Ġfoundation": 6631,
      "Ġdrop": 6632,
      "Ġpainful": 6633,
      "ĠLatin": 6634,
      "Ġmild": 6635,
      "Ġ69": 6636,
      "Ġmaintained": 6637,
      "Ġfeared": 6638,
      "Ġsugar": 6639,
      "Ġlakes": 6640,
      "What": 6641,
      "Ġdeparted": 6642,
      "ĠWOR": 6643,
      "abb": 6644,
      "Ġlibrary": 6645,
      "ASS": 6646,
      "Ġasking": 6647,
      "Ġdwelling": 6648,
      "Ġignorant": 6649,
      "Ġselected": 6650,
      "Ġeste": 6651,
      "ighed": 6652,
      "Ġconsequently": 6653,
      "Ġskin": 6654,
      "Ġsacrifice": 6655,
      "ĠBuck": 6656,
      "Ġliqu": 6657,
      "Ġaltern": 6658,
      "Ġuseless": 6659,
      "Ġabundant": 6660,
      "Ġministers": 6661,
      "stairs": 6662,
      "ĠBR": 6663,
      "adem": 6664,
      "Ġmead": 6665,
      "sex": 6666,
      "Ġattain": 6667,
      "Ġaffected": 6668,
      "Ġblessed": 6669,
      "Ġtemperature": 6670,
      "Ġdated": 6671,
      "Ġguests": 6672,
      "Ġrevolution": 6673,
      "inction": 6674,
      "Ġfellows": 6675,
      "Ġstrata": 6676,
      "ĠFrederick": 6677,
      "Ġburnt": 6678,
      "ĠMiddle": 6679,
      "anton": 6680,
      "itute": 6681,
      "Ġsentence": 6682,
      "ĠAbbey": 6683,
      "Ġkit": 6684,
      "Ġrecovered": 6685,
      "Ġ90": 6686,
      "Ġcreek": 6687,
      "Ġly": 6688,
      "Ġprud": 6689,
      "Ġfertile": 6690,
      "ancholy": 6691,
      "bishop": 6692,
      "arr": 6693,
      "ĠDur": 6694,
      "Ġbag": 6695,
      "Ġsignal": 6696,
      "ĠFitz": 6697,
      "Ġmeal": 6698,
      "ĠSvo": 6699,
      "inton": 6700,
      "ĠDeath": 6701,
      "ĠRomans": 6702,
      "Ġboundary": 6703,
      "Ġmonument": 6704,
      "ĠPur": 6705,
      "Ġ53": 6706,
      "ifying": 6707,
      "Ġportra": 6708,
      "ĠAsia": 6709,
      "Ġhurt": 6710,
      "Chap": 6711,
      "usetts": 6712,
      "Ġstairs": 6713,
      "Ġestates": 6714,
      "ĠBarn": 6715,
      "Ġprominent": 6716,
      "Ġdescent": 6717,
      "Ġdegrees": 6718,
      "Ġ|": 6719,
      "Ġrisk": 6720,
      "Ġproperly": 6721,
      "88": 6722,
      "Ġdeserted": 6723,
      "ĠOri": 6724,
      "ĠLes": 6725,
      "riages": 6726,
      "Ġtran": 6727,
      "Ġah": 6728,
      "rate": 6729,
      "Ġorganized": 6730,
      "Ġvolcan": 6731,
      "Ġviolence": 6732,
      "Ġatmosphere": 6733,
      "Ġnose": 6734,
      "amma": 6735,
      "Ġbend": 6736,
      "Ġlargely": 6737,
      "Ġprinted": 6738,
      "OUS": 6739,
      "Ġswift": 6740,
      "Ġmovements": 6741,
      "Ġhidden": 6742,
      "ĠChat": 6743,
      "mony": 6744,
      "bacco": 6745,
      "Ġpetition": 6746,
      "Ġod": 6747,
      "actory": 6748,
      "Ġhers": 6749,
      "amps": 6750,
      "host": 6751,
      "ĠHart": 6752,
      "Ġmineral": 6753,
      "Ġwithdra": 6754,
      "Ġconscience": 6755,
      "Ġeffected": 6756,
      "sha": 6757,
      "Ġaccur": 6758,
      "Ġard": 6759,
      "back": 6760,
      "ĠHamilton": 6761,
      "ĠMet": 6762,
      "Ġinstinct": 6763,
      "Ġdelighted": 6764,
      "arer": 6765,
      "HISTORY": 6766,
      "Ġcoach": 6767,
      "Ġdevil": 6768,
      "Ġeldest": 6769,
      "Ġult": 6770,
      "ĠSouthern": 6771,
      "Ġinquired": 6772,
      "ĠAuthor": 6773,
      "Ġtreas": 6774,
      "Ġhorror": 6775,
      "ĠPot": 6776,
      "Ã¦s": 6777,
      "riptions": 6778,
      "two": 6779,
      "Ġplat": 6780,
      "Ġautumn": 6781,
      "ĠEv": 6782,
      "Ġhint": 6783,
      "âĢ¢": 6784,
      "cles": 6785,
      "Ġphysical": 6786,
      "Ġhal": 6787,
      "but": 6788,
      "Ġsailed": 6789,
      "hor": 6790,
      "Ġfavourable": 6791,
      "ĠAD": 6792,
      "Ġsigned": 6793,
      "Ġcommander": 6794,
      "Ġlan": 6795,
      "ĠTurn": 6796,
      "Ġmourn": 6797,
      "Ġhappen": 6798,
      "Ġfulf": 6799,
      "ĠMissouri": 6800,
      "AW": 6801,
      "Ġinvited": 6802,
      "Ġbehold": 6803,
      "Ġpatriot": 6804,
      "Ġpark": 6805,
      "ront": 6806,
      "ĠCler": 6807,
      "Ġsixteen": 6808,
      "shine": 6809,
      "Ġforests": 6810,
      "Ġsupper": 6811,
      "uated": 6812,
      "wa": 6813,
      "ĠOut": 6814,
      "byter": 6815,
      "ym": 6816,
      "Ġ79": 6817,
      "Ġplaying": 6818,
      "Ġobed": 6819,
      "Ġrarely": 6820,
      "ĠHa": 6821,
      "ĠDown": 6822,
      "six": 6823,
      "ĠBart": 6824,
      "Ġriding": 6825,
      "Ġfed": 6826,
      "otted": 6827,
      "ONG": 6828,
      "Ġfreely": 6829,
      "Ġdrift": 6830,
      "Ġ;\"": 6831,
      "Ġ54": 6832,
      "Ġpenet": 6833,
      "leton": 6834,
      "Tis": 6835,
      "Ġinterrupted": 6836,
      "Ġoak": 6837,
      "Ġmerry": 6838,
      "Ġexisting": 6839,
      "Ġfearful": 6840,
      "ĠLang": 6841,
      "Ġsounds": 6842,
      "umin": 6843,
      "Ġax": 6844,
      "Ġreputation": 6845,
      "eling": 6846,
      "Ġnegro": 6847,
      "Ġaccess": 6848,
      "iner": 6849,
      "Ġtde": 6850,
      "ĠBoard": 6851,
      "Ġinsult": 6852,
      "Ġinterview": 6853,
      "atus": 6854,
      "ĠWilson": 6855,
      "ĠScotch": 6856,
      "Ġweap": 6857,
      "Ġincluded": 6858,
      "Ġther": 6859,
      "Ġ120": 6860,
      "Ġcourts": 6861,
      "Ġrelation": 6862,
      "othe": 6863,
      "Ġrefuge": 6864,
      "Ġcree": 6865,
      "Ġfourteen": 6866,
      "Ġsubsc": 6867,
      "IGHT": 6868,
      "Ġfeast": 6869,
      "Ġdivers": 6870,
      "ĠMeth": 6871,
      "Ġcompared": 6872,
      "Ġcheeks": 6873,
      "Ġgranite": 6874,
      "Ġcalls": 6875,
      "Ġconstruction": 6876,
      "arson": 6877,
      "bel": 6878,
      "Ġimproved": 6879,
      "Ġdarling": 6880,
      "Ġcongreg": 6881,
      "Ġsketch": 6882,
      "cia": 6883,
      "entions": 6884,
      "Ġpunishment": 6885,
      "umberland": 6886,
      "Ġdisgra": 6887,
      "oug": 6888,
      "Ġanchorage": 6889,
      "lesiast": 6890,
      "ĠGE": 6891,
      "Ġinstances": 6892,
      "erent": 6893,
      "Ġmelancholy": 6894,
      "68": 6895,
      "ĠPRO": 6896,
      "Ġcompet": 6897,
      "itan": 6898,
      "Ġjew": 6899,
      "Ġpipe": 6900,
      "ĠMons": 6901,
      "quarters": 6902,
      "Ġmagistr": 6903,
      "Ġleader": 6904,
      "Ġcommunity": 6905,
      "Ġprosperity": 6906,
      "ANCE": 6907,
      "ba": 6908,
      "ĠPennsylvania": 6909,
      "Ġcontrib": 6910,
      "omed": 6911,
      "ĠHay": 6912,
      "Ġrefuse": 6913,
      "aments": 6914,
      "Ġendeavour": 6915,
      "General": 6916,
      "Ġrele": 6917,
      "ĠGib": 6918,
      "Ġrush": 6919,
      "Ġcart": 6920,
      "hand": 6921,
      "rue": 6922,
      "ĠNicholas": 6923,
      "Ġcultivation": 6924,
      "ĠSaint": 6925,
      "ĠBon": 6926,
      "Ġcannon": 6927,
      "book": 6928,
      "Ġsentiment": 6929,
      "ERN": 6930,
      "Ġconflict": 6931,
      "Ġvote": 6932,
      "ĠPa": 6933,
      "ĠJon": 6934,
      "Ġshock": 6935,
      "Ġtear": 6936,
      "Ġlegal": 6937,
      "ĠDal": 6938,
      "Ġprevented": 6939,
      "ĠWAR": 6940,
      "Ġsafely": 6941,
      "Ġimagination": 6942,
      "illings": 6943,
      "rove": 6944,
      "Ġmillions": 6945,
      "ĠIsaac": 6946,
      "ĠCommon": 6947,
      "Ġasleep": 6948,
      "ĠHas": 6949,
      "Ġbid": 6950,
      "Ġteach": 6951,
      "Ġshru": 6952,
      "eenth": 6953,
      "Ġadministration": 6954,
      "urely": 6955,
      "ĠMassach": 6956,
      "ĠRus": 6957,
      "Ġturns": 6958,
      "olf": 6959,
      "inging": 6960,
      "conom": 6961,
      "ĠWilliams": 6962,
      "course": 6963,
      "Ġtransp": 6964,
      "Ġwards": 6965,
      "Ġmental": 6966,
      "Ġurged": 6967,
      "atherine": 6968,
      "Ġcounter": 6969,
      "pse": 6970,
      "Ġextract": 6971,
      "Ġ51": 6972,
      "gent": 6973,
      "IND": 6974,
      "ĠIowa": 6975,
      "era": 6976,
      "Ġblock": 6977,
      "Ġneighbouring": 6978,
      "Ġtravellers": 6979,
      "Ġowned": 6980,
      "Ġrefer": 6981,
      "Ġexecuted": 6982,
      "Ġoccupy": 6983,
      "Ġdisposition": 6984,
      "icle": 6985,
      "Ġscheme": 6986,
      "Ġagent": 6987,
      "Ġabrupt": 6988,
      "iy": 6989,
      "ĠWat": 6990,
      "Ġwings": 6991,
      "ĠTim": 6992,
      "ĠSix": 6993,
      "Ġjur": 6994,
      "Ġpulled": 6995,
      "Ġou": 6996,
      "ĠCrom": 6997,
      "Ġnerv": 6998,
      "Ġcas": 6999,
      "Ġincreasing": 7000,
      "Ġ85": 7001,
      "ĠRoad": 7002,
      "Ġmeat": 7003,
      "Ġinhab": 7004,
      "Ġretire": 7005,
      "Ġtorn": 7006,
      "onscious": 7007,
      "ida": 7008,
      "Ġseas": 7009,
      "Ġwave": 7010,
      "ĠTell": 7011,
      "Ġlifted": 7012,
      "ĠHunt": 7013,
      "Th": 7014,
      "Ġranks": 7015,
      "ĠAdam": 7016,
      "Ġ52": 7017,
      "Ġvisitor": 7018,
      "ĠMatt": 7019,
      "Ġvaried": 7020,
      "Ġinfantry": 7021,
      "ARY": 7022,
      "ĠHolland": 7023,
      "Ġbark": 7024,
      "Ġroll": 7025,
      "Ġcharter": 7026,
      "uther": 7027,
      "Ġrelative": 7028,
      "ĠShall": 7029,
      "Ġwd": 7030,
      "ĠBenjamin": 7031,
      "Ġdecor": 7032,
      "ĠLawrence": 7033,
      "Ġspecul": 7034,
      "Ġeagerly": 7035,
      "Ġmerchants": 7036,
      "Ġadapt": 7037,
      "Ġirregular": 7038,
      "ĠRalph": 7039,
      "Ġbew": 7040,
      "Ġremainder": 7041,
      "bing": 7042,
      "Ġresistance": 7043,
      "agger": 7044,
      "Ġcolours": 7045,
      "Ġarmies": 7046,
      "Ġmatch": 7047,
      "ĠChic": 7048,
      "eps": 7049,
      "Ġpup": 7050,
      "Ġcounsel": 7051,
      "rell": 7052,
      "Ġfears": 7053,
      "Ġpreceding": 7054,
      "Ġcomparatively": 7055,
      "Ġmaterials": 7056,
      "Ġdefeated": 7057,
      "Ġnotwithstanding": 7058,
      "ero": 7059,
      "ĠEve": 7060,
      "Ġwheat": 7061,
      "ĠCarl": 7062,
      "ĠValley": 7063,
      "Ġsuspicion": 7064,
      "ĠAssembly": 7065,
      "Ġpayment": 7066,
      "Ġrestra": 7067,
      "OHN": 7068,
      "PP": 7069,
      "ĠHope": 7070,
      "ĠTower": 7071,
      "UD": 7072,
      "eman": 7073,
      "ĠOb": 7074,
      "Ġappeal": 7075,
      "Ġlandl": 7076,
      "ĠLower": 7077,
      "OY": 7078,
      "Ġprejud": 7079,
      "ĠField": 7080,
      "ĠLight": 7081,
      "Ġconvenient": 7082,
      "astic": 7083,
      "ĠBurg": 7084,
      "Ġlack": 7085,
      "Ġfishing": 7086,
      "Ġembra": 7087,
      "ĠLeon": 7088,
      "Ġrust": 7089,
      "asant": 7090,
      "Ġdesperate": 7091,
      "Ġhaunt": 7092,
      "ĠClare": 7093,
      "Ġrecorded": 7094,
      "Ġvener": 7095,
      "ĠRel": 7096,
      "Ġwal": 7097,
      "ĠSel": 7098,
      "Ġarrangements": 7099,
      "Ġcharacters": 7100,
      "Ġplanted": 7101,
      "Ġforgive": 7102,
      "ifully": 7103,
      "Ġblaz": 7104,
      "Ġcustoms": 7105,
      "Ġengagement": 7106,
      "Ġpassengers": 7107,
      "Ġceremony": 7108,
      "Ġpushed": 7109,
      "unning": 7110,
      "iated": 7111,
      "Ġobsc": 7112,
      "ĠChristians": 7113,
      "wen": 7114,
      "bu": 7115,
      "ĠBrig": 7116,
      "Ġdisplay": 7117,
      "Ġproceeding": 7118,
      "Ġsunshine": 7119,
      "upon": 7120,
      "OOK": 7121,
      "Ġopposed": 7122,
      "Ġintr": 7123,
      "Ġeloqu": 7124,
      "Ġuncertain": 7125,
      "Ġartist": 7126,
      "Ġwives": 7127,
      "ĠKil": 7128,
      "ĠAlf": 7129,
      "elly": 7130,
      "Ġtun": 7131,
      "Ġresided": 7132,
      "Ġanger": 7133,
      "ini": 7134,
      "arian": 7135,
      "ĠSwed": 7136,
      "Ġna": 7137,
      "Ġrig": 7138,
      "Ġtrembling": 7139,
      "ules": 7140,
      "Ġmale": 7141,
      "ĠJudge": 7142,
      "EY": 7143,
      "Ġwra": 7144,
      "Ġspecimens": 7145,
      "ĠOnce": 7146,
      "ĠSatur": 7147,
      "ĠFa": 7148,
      "ishops": 7149,
      "ends": 7150,
      "Ġlabor": 7151,
      "ĠRoger": 7152,
      "Ġcompr": 7153,
      "ĠDear": 7154,
      "Ġsisters": 7155,
      "ĠOver": 7156,
      "ĠSoon": 7157,
      "Ġconspic": 7158,
      "Ġrug": 7159,
      "Ġrespecting": 7160,
      "Ġhastily": 7161,
      "ĠFre": 7162,
      "Ġabsent": 7163,
      "Ġgraceful": 7164,
      "Ġkitchen": 7165,
      "lle": 7166,
      "Ġfitted": 7167,
      "bes": 7168,
      "ĠLib": 7169,
      "Ġincon": 7170,
      "ications": 7171,
      "ĠBru": 7172,
      "bra": 7173,
      "Ġplainly": 7174,
      "Ġraising": 7175,
      "ĠMcC": 7176,
      "Ġvary": 7177,
      "ĠDom": 7178,
      "RIC": 7179,
      "Ġglim": 7180,
      "ector": 7181,
      "ache": 7182,
      "Ġcapacity": 7183,
      "Ġmap": 7184,
      "Ġfrontier": 7185,
      "ĠwiU": 7186,
      "Ġrepair": 7187,
      "LEY": 7188,
      "ĠGord": 7189,
      "Ġmilk": 7190,
      "Ġelevated": 7191,
      "Ġfatig": 7192,
      "Ġuniversal": 7193,
      "Ġhunting": 7194,
      "Ġincident": 7195,
      "Ġthreatened": 7196,
      "bye": 7197,
      "Ġcollege": 7198,
      "Ġcleared": 7199,
      "75": 7200,
      "Ġsevent": 7201,
      "Ġduke": 7202,
      "board": 7203,
      "Ġample": 7204,
      "Ġreality": 7205,
      "quest": 7206,
      "Ġexamined": 7207,
      "Ġcanal": 7208,
      "Ġtobacco": 7209,
      "Ġemperor": 7210,
      "Ġsubsequent": 7211,
      "xion": 7212,
      "ĠNOR": 7213,
      "Ġquantities": 7214,
      "ĠLar": 7215,
      "Ġcompanies": 7216,
      "Ġsuitable": 7217,
      "Ġannounced": 7218,
      "Ġpaused": 7219,
      "Ġsurrender": 7220,
      "ĠFig": 7221,
      "ieu": 7222,
      "ĠHotel": 7223,
      "Ġcliffs": 7224,
      "ĠPacific": 7225,
      "Ġneighbours": 7226,
      "met": 7227,
      "Ġgif": 7228,
      "Ġsecurity": 7229,
      "Ġslept": 7230,
      "ulpt": 7231,
      "EX": 7232,
      "Ġvice": 7233,
      "Ġobservation": 7234,
      "ography": 7235,
      "ĠBall": 7236,
      "Ġfeature": 7237,
      "Ġkne": 7238,
      "Ġmood": 7239,
      "Ġhundreds": 7240,
      "Ġarrive": 7241,
      "Ġcommanding": 7242,
      "LL": 7243,
      "Ġwhisper": 7244,
      "Ġmanor": 7245,
      "ĠTill": 7246,
      "Ġpaint": 7247,
      "ĠDis": 7248,
      "poration": 7249,
      "Ġshillings": 7250,
      "Ġkissed": 7251,
      "Ġwouldn": 7252,
      "Ġsport": 7253,
      "Ġfountain": 7254,
      "ez": 7255,
      "Ġinner": 7256,
      "Ġsprang": 7257,
      "Ġcum": 7258,
      ",*": 7259,
      "ĠTri": 7260,
      "ĠAtlantic": 7261,
      "ĠCommons": 7262,
      "isle": 7263,
      "rels": 7264,
      "Ġprefer": 7265,
      "Ġovert": 7266,
      "Ġruined": 7267,
      "asy": 7268,
      "rep": 7269,
      "Ġnobody": 7270,
      "63": 7271,
      "Ġtemp": 7272,
      "Ġslain": 7273,
      "ĠMassachusetts": 7274,
      "Ġluxur": 7275,
      "ĠMond": 7276,
      "Ġdeliver": 7277,
      "Ġ1870": 7278,
      "Ġignorance": 7279,
      "Ġthine": 7280,
      "Ġdevotion": 7281,
      "ĠFlorence": 7282,
      "Ġencoura": 7283,
      "Ġrecognised": 7284,
      "uting": 7285,
      "ĠCentral": 7286,
      "pless": 7287,
      "Ġdreams": 7288,
      "ĠBible": 7289,
      "ĠLim": 7290,
      "orter": 7291,
      "ĠGent": 7292,
      "ĠGreece": 7293,
      "Ġsteel": 7294,
      "Ġmajesty": 7295,
      "Ġsteady": 7296,
      "ĠJerus": 7297,
      "Ġdared": 7298,
      "ATH": 7299,
      "Ġidle": 7300,
      "Ġrelated": 7301,
      "ulgar": 7302,
      "Ġrested": 7303,
      "ĠIllustrations": 7304,
      "oph": 7305,
      "liness": 7306,
      "61": 7307,
      "ĠNorthern": 7308,
      "Ġgratitude": 7309,
      "mill": 7310,
      "ĠBow": 7311,
      "Ġengage": 7312,
      "Ġslope": 7313,
      "arest": 7314,
      "ĠSub": 7315,
      "Ġmos": 7316,
      "Ġmasters": 7317,
      "ĠSuper": 7318,
      "ĠSeveral": 7319,
      "Ġsuperst": 7320,
      "Ġresc": 7321,
      "ĠSaturday": 7322,
      "Ġbaby": 7323,
      "Ġcoarse": 7324,
      "Ġow": 7325,
      "Ġlege": 7326,
      "ĠSa": 7327,
      "Ġsolitary": 7328,
      "Ġnep": 7329,
      "Ġpursuit": 7330,
      "Ġkey": 7331,
      "Ġdriving": 7332,
      "Ġresumed": 7333,
      "ENCE": 7334,
      "ĠKnight": 7335,
      "Ġspiritual": 7336,
      "ĠScottish": 7337,
      "Ġrage": 7338,
      "ĠLuc": 7339,
      "Ġluck": 7340,
      "ĠChapel": 7341,
      "Ġwhenever": 7342,
      "ĠChester": 7343,
      "uits": 7344,
      "Ġflying": 7345,
      "Ġmortal": 7346,
      "Ġ159": 7347,
      "Ġmidnight": 7348,
      "Ġrepublic": 7349,
      "Ġburned": 7350,
      "rer": 7351,
      "Ġstair": 7352,
      "Ġchest": 7353,
      "igan": 7354,
      "ĠNay": 7355,
      "Ġprayers": 7356,
      "Ġsore": 7357,
      "order": 7358,
      "Ġrespectable": 7359,
      "Ġacting": 7360,
      "annah": 7361,
      "Ġqualities": 7362,
      "isk": 7363,
      "Ġholds": 7364,
      "Ġok": 7365,
      "Ġhanded": 7366,
      "Ġmechan": 7367,
      "Ġcompass": 7368,
      "Ġwriters": 7369,
      "Ġuttered": 7370,
      "Ġcir": 7371,
      "Ġexamination": 7372,
      "ĠBab": 7373,
      "Ġstretched": 7374,
      "Ġconveyed": 7375,
      "Ġeverybody": 7376,
      "Ġventure": 7377,
      "which": 7378,
      "ĠChristmas": 7379,
      "78": 7380,
      "Ġenv": 7381,
      "Ġboast": 7382,
      "oa": 7383,
      "Ġdeeds": 7384,
      "Ġconsiderably": 7385,
      "Ġpoured": 7386,
      "Ġnurse": 7387,
      "Â«": 7388,
      "ĠEmpire": 7389,
      "quet": 7390,
      "ĠÐ": 7391,
      "Ġyv": 7392,
      "ĠCart": 7393,
      "Ġconvinced": 7394,
      "iate": 7395,
      "Ġstaff": 7396,
      "Ġdur": 7397,
      "ĠSpaniards": 7398,
      "Ġhanging": 7399,
      "Ġdish": 7400,
      "Ġshining": 7401,
      "Ġerect": 7402,
      "Ġspeaks": 7403,
      "Ġamaz": 7404,
      "Ġnet": 7405,
      "Ġtype": 7406,
      "Ġanal": 7407,
      "orus": 7408,
      "ĠTen": 7409,
      "Ġinch": 7410,
      "Ġ68": 7411,
      "ĠSing": 7412,
      "Ġgods": 7413,
      "Ġdisease": 7414,
      "ORT": 7415,
      "Ġpatience": 7416,
      "Ġnevertheless": 7417,
      "quer": 7418,
      "Ġheights": 7419,
      "mund": 7420,
      "OOD": 7421,
      "Ġassembly": 7422,
      "43": 7423,
      "Ġshed": 7424,
      "rary": 7425,
      "Ġparted": 7426,
      "Ġabsurd": 7427,
      "Ġdisplayed": 7428,
      "ĠRu": 7429,
      "ĠNational": 7430,
      "ala": 7431,
      "Ġsees": 7432,
      "ota": 7433,
      "Ġdecision": 7434,
      "Ġearl": 7435,
      "cent": 7436,
      "has": 7437,
      "Ġ155": 7438,
      "Ġassert": 7439,
      "Ġliterature": 7440,
      "Ġadditional": 7441,
      "Ġcries": 7442,
      "Ġexhausted": 7443,
      "Ġstout": 7444,
      "Ġimagined": 7445,
      "ĠKate": 7446,
      "avery": 7447,
      "Ġ63": 7448,
      "Ġaforesaid": 7449,
      "Ġsession": 7450,
      "St": 7451,
      "ĠAustralia": 7452,
      "Ġflows": 7453,
      "ĠUniversity": 7454,
      "hearted": 7455,
      "Ġdeemed": 7456,
      "uer": 7457,
      "Ġisn": 7458,
      "ifice": 7459,
      "ĠBern": 7460,
      "Ġinex": 7461,
      "fect": 7462,
      "Ġdeliber": 7463,
      "Ġforgot": 7464,
      "ĠRevolution": 7465,
      "Ġreject": 7466,
      "chester": 7467,
      "Ġgrateful": 7468,
      "ISS": 7469,
      "force": 7470,
      "ĠGR": 7471,
      "Ġbeloved": 7472,
      "ĠCommittee": 7473,
      "Ġ500": 7474,
      "Ġdepths": 7475,
      "Ġmystery": 7476,
      "Ġmysterious": 7477,
      "Ġintervals": 7478,
      "Ġdoth": 7479,
      "ĠAmericans": 7480,
      "Ġgrasp": 7481,
      "ggs": 7482,
      "HER": 7483,
      "Ġweakness": 7484,
      "ĠMax": 7485,
      "Ġdict": 7486,
      "Ġinstrument": 7487,
      "Ġtroubled": 7488,
      "Ġincor": 7489,
      "Ġabundance": 7490,
      "Ġcard": 7491,
      "Ġpermission": 7492,
      "Ġliberal": 7493,
      "Ġscru": 7494,
      "anim": 7495,
      "Ġmould": 7496,
      "Ġenable": 7497,
      "Ġbounded": 7498,
      "ĠArm": 7499,
      "quisite": 7500,
      "Ġangel": 7501,
      "Ġhomes": 7502,
      "Ġprinces": 7503,
      "Ġaltered": 7504,
      "Ã©": 7505,
      "Ġfortunate": 7506,
      "ĠPitt": 7507,
      "Ġecho": 7508,
      "Ġhed": 7509,
      "Ġunexpected": 7510,
      "ĠSaxon": 7511,
      "ĠBarb": 7512,
      "ĠHan": 7513,
      "ĠBert": 7514,
      "Ġtheory": 7515,
      "Ġwars": 7516,
      "ĠWhit": 7517,
      "Ġflame": 7518,
      "Ġexplanation": 7519,
      "Ġinstitutions": 7520,
      "ĠCard": 7521,
      "Ġrein": 7522,
      "PT": 7523,
      "Ġpoison": 7524,
      "ĠClark": 7525,
      "Ġremote": 7526,
      "ĠPO": 7527,
      "Ġacre": 7528,
      "ato": 7529,
      "ques": 7530,
      "Ġbul": 7531,
      "Ġconquer": 7532,
      "ĠColon": 7533,
      "Ġdefeat": 7534,
      "Ġpaying": 7535,
      "Ġdescrib": 7536,
      "itors": 7537,
      "ĠTurks": 7538,
      "ĠXXX": 7539,
      "Ġinsur": 7540,
      "Ġadmire": 7541,
      "Ġsoftly": 7542,
      "inence": 7543,
      "TLE": 7544,
      "ĠPresbyter": 7545,
      "21": 7546,
      "aria": 7547,
      "Ġrecover": 7548,
      "ĠLieut": 7549,
      "Ġchose": 7550,
      "Ġslightest": 7551,
      "Ġrevenue": 7552,
      "Ġdescribe": 7553,
      "Ġcouldn": 7554,
      "Ġcared": 7555,
      "ĠJerusalem": 7556,
      "Ġmetal": 7557,
      "Ġleaf": 7558,
      "ĠPier": 7559,
      "Ġglac": 7560,
      "pool": 7561,
      "Ġpine": 7562,
      "TERS": 7563,
      "Ġprofit": 7564,
      "oubted": 7565,
      "acent": 7566,
      "vis": 7567,
      "gow": 7568,
      "Ġfires": 7569,
      "Ġcutting": 7570,
      "Ġsculpt": 7571,
      "Ġdismiss": 7572,
      "41": 7573,
      "Ġchim": 7574,
      "ĠProtestant": 7575,
      "Ġimprison": 7576,
      "ĠLl": 7577,
      "ĠLane": 7578,
      "Ġtravers": 7579,
      "achel": 7580,
      "Ġdepartment": 7581,
      "Ġgazed": 7582,
      "Ġburden": 7583,
      "Ġdrown": 7584,
      "ĠCÃ¦s": 7585,
      "uns": 7586,
      "ĠLegisl": 7587,
      "ĠMean": 7588,
      "ulate": 7589,
      "Ġfix": 7590,
      "Ġgloomy": 7591,
      "Ġtones": 7592,
      "Ġrolled": 7593,
      "Ġtowers": 7594,
      "Ġcombined": 7595,
      "Ġcharacteristic": 7596,
      "Ġclub": 7597,
      "Ġblame": 7598,
      "Ġ1840": 7599,
      "Ġexhibited": 7600,
      "Ġbutter": 7601,
      "ĠCalif": 7602,
      "ĠScots": 7603,
      "Ġtid": 7604,
      "Ġfrightened": 7605,
      "ĠJeff": 7606,
      "Ġeconom": 7607,
      "Ġabsor": 7608,
      "ĠNext": 7609,
      "iasm": 7610,
      "Ġsolic": 7611,
      "Ġcoloured": 7612,
      "itudes": 7613,
      "Ġimprovement": 7614,
      "Ġappointment": 7615,
      "Ġindependence": 7616,
      "Ġdense": 7617,
      "ĠVill": 7618,
      "ĠWalk": 7619,
      "Ġspl": 7620,
      "Ġunconscious": 7621,
      "ws": 7622,
      "Ġinstitution": 7623,
      "ĠSi": 7624,
      "Ġelegant": 7625,
      "Ġ1850": 7626,
      "Ġ00": 7627,
      "Ġresources": 7628,
      "Ġ1837": 7629,
      "ador": 7630,
      "Ġassault": 7631,
      "ĠBalt": 7632,
      "umption": 7633,
      "ĠHE": 7634,
      "Ġraces": 7635,
      "Ġprecise": 7636,
      "Ġselfish": 7637,
      "Ġsimpl": 7638,
      "Ġpover": 7639,
      "ĠHence": 7640,
      "Ġconfirmed": 7641,
      "ĠPas": 7642,
      "Ġfrank": 7643,
      "WN": 7644,
      "ublin": 7645,
      "Ġunlike": 7646,
      "Ġwanting": 7647,
      "ĠGulf": 7648,
      "Ġjoint": 7649,
      "cs": 7650,
      "ĠDistrict": 7651,
      "ifications": 7652,
      "Ġfisher": 7653,
      "Ġhut": 7654,
      "isation": 7655,
      "Ġshops": 7656,
      "ĠBey": 7657,
      "Ġleaders": 7658,
      "Ġunusual": 7659,
      "Ġaccum": 7660,
      "ĠStone": 7661,
      "ĠMich": 7662,
      "ĠTime": 7663,
      "isd": 7664,
      "ĠMaria": 7665,
      "ira": 7666,
      "Ġvols": 7667,
      "vet": 7668,
      "Ġnephew": 7669,
      "aph": 7670,
      "icted": 7671,
      "Ġgray": 7672,
      "Ġtraces": 7673,
      "Ġgorge": 7674,
      "Ġinher": 7675,
      "Ġfurniture": 7676,
      "ĠVictoria": 7677,
      "ĠIX": 7678,
      "Ġlime": 7679,
      "thren": 7680,
      "Ġfoss": 7681,
      "Ġ78": 7682,
      "Ġfirmly": 7683,
      "Ġmanifest": 7684,
      "Ġghost": 7685,
      "Ġforehead": 7686,
      "Ġhistorical": 7687,
      "eur": 7688,
      "Ġpilgr": 7689,
      "Ġfragments": 7690,
      "imony": 7691,
      "odge": 7692,
      "Ġpressure": 7693,
      "Ġmoderate": 7694,
      "hamed": 7695,
      "inery": 7696,
      "Ġstronger": 7697,
      "Ġash": 7698,
      "ennes": 7699,
      "Ġunl": 7700,
      "Ġmerit": 7701,
      "IAL": 7702,
      "ĠChild": 7703,
      "ĠGrey": 7704,
      "67": 7705,
      "idel": 7706,
      "ĠLords": 7707,
      "ĠHud": 7708,
      "PER": 7709,
      "Ġadventure": 7710,
      "69": 7711,
      "Â»": 7712,
      "Ġneighbor": 7713,
      "iscop": 7714,
      "Ġdiscipl": 7715,
      "Ġconnect": 7716,
      "Ġyn": 7717,
      "Ġlin": 7718,
      "ĠSult": 7719,
      "Ġexquisite": 7720,
      "eight": 7721,
      "Ġsending": 7722,
      "Ġtreatment": 7723,
      "othy": 7724,
      "insula": 7725,
      "ĠHome": 7726,
      "Ġdistinction": 7727,
      "Ġoccurs": 7728,
      "igne": 7729,
      "ĠDublin": 7730,
      "Ġhaste": 7731,
      "Ġinstructions": 7732,
      "Ġhelped": 7733,
      "ĠCaliforn": 7734,
      "ipt": 7735,
      "ĠGreeks": 7736,
      "Ġcheck": 7737,
      "ounted": 7738,
      "uty": 7739,
      "Ġlatitude": 7740,
      "Ġ87": 7741,
      "Ġdy": 7742,
      "aration": 7743,
      "Ġnobles": 7744,
      "Ġperceived": 7745,
      "idable": 7746,
      "Ġseats": 7747,
      "inder": 7748,
      "Ġemotion": 7749,
      "Ġverd": 7750,
      "Ġpermanent": 7751,
      "hend": 7752,
      "Ġmusk": 7753,
      "ACK": 7754,
      "useum": 7755,
      "intend": 7756,
      "rael": 7757,
      "Ġconcealed": 7758,
      "Ġpermit": 7759,
      "Ġgig": 7760,
      "Ġsunk": 7761,
      "gn": 7762,
      "ĠBetween": 7763,
      "Ġvague": 7764,
      "ĠBapt": 7765,
      "Ġhole": 7766,
      "Ġdistinctly": 7767,
      "ogue": 7768,
      "that": 7769,
      "ela": 7770,
      "erness": 7771,
      "Ġtouching": 7772,
      "phant": 7773,
      "ĠWH": 7774,
      "Ġenlar": 7775,
      "Ġpoverty": 7776,
      "FF": 7777,
      "Ġsleeping": 7778,
      "Ġencourage": 7779,
      "Ġlap": 7780,
      "Ġflowing": 7781,
      "ĠDougl": 7782,
      "Ġambition": 7783,
      "Ġmonaster": 7784,
      "fa": 7785,
      "ĠArmy": 7786,
      "Ġmedic": 7787,
      "Ġmaiden": 7788,
      "Ġrespects": 7789,
      "Ġpace": 7790,
      "Ġlaughter": 7791,
      "Ġremove": 7792,
      "Ġfailure": 7793,
      "ĠGlas": 7794,
      "Ġmistaken": 7795,
      "otte": 7796,
      "Ġpound": 7797,
      "minster": 7798,
      "Ġcreatures": 7799,
      "Ġshoal": 7800,
      "Ġprofound": 7801,
      "Ġdancing": 7802,
      "ĠMonday": 7803,
      "Ġdevelopment": 7804,
      "Ġ1854": 7805,
      "Ġrelieved": 7806,
      "Ġabst": 7807,
      "Ġeducated": 7808,
      "Ġture": 7809,
      "Ġinscription": 7810,
      "Ġsincere": 7811,
      "Ġtom": 7812,
      "Ġ95": 7813,
      "Ġleagues": 7814,
      "Ġstandard": 7815,
      "erity": 7816,
      "Ġinfinite": 7817,
      "Ġbrings": 7818,
      "rand": 7819,
      "ĠMY": 7820,
      "Well": 7821,
      "Ġpresident": 7822,
      "Ġbask": 7823,
      "Ġmansion": 7824,
      "phia": 7825,
      "icing": 7826,
      "ĠJustice": 7827,
      "Ġwheel": 7828,
      "Ġinduce": 7829,
      "geant": 7830,
      "Ġrope": 7831,
      "Ġ73": 7832,
      "ĠTaylor": 7833,
      "Ġecclesiast": 7834,
      "Ġconspicuous": 7835,
      "Ġleis": 7836,
      "nut": 7837,
      "ĠServ": 7838,
      "Ġperil": 7839,
      "Ġliterary": 7840,
      "Ġheavily": 7841,
      "Ġcens": 7842,
      "ĠRet": 7843,
      "oh": 7844,
      "ĠGran": 7845,
      "ĠCab": 7846,
      "Ġlocality": 7847,
      "Ġcandid": 7848,
      "Ġstiff": 7849,
      "Ġdeclare": 7850,
      "abor": 7851,
      "Ġfollowers": 7852,
      "Ġthroat": 7853,
      "Ġthrust": 7854,
      "ĠBull": 7855,
      "Ġdisg": 7856,
      "Ġentertained": 7857,
      "ĠGordon": 7858,
      "mar": 7859,
      "ĠJews": 7860,
      "Ġgas": 7861,
      "Ġelement": 7862,
      "ĠInn": 7863,
      "Ġfoe": 7864,
      "Ġdisgrace": 7865,
      "Ġ89": 7866,
      "ten": 7867,
      "Ġwoo": 7868,
      "Ġfinger": 7869,
      "ĠSOU": 7870,
      "ĠCas": 7871,
      "Ġshield": 7872,
      "Ġprovide": 7873,
      "ĠMother": 7874,
      "UC": 7875,
      "aUy": 7876,
      "town": 7877,
      "Ġcarbon": 7878,
      "zed": 7879,
      "Ġlords": 7880,
      "ĠAnth": 7881,
      "ĠBL": 7882,
      "Ġpoetry": 7883,
      "ĠJean": 7884,
      "Ġdisturbed": 7885,
      "ĠGeorg": 7886,
      "Ġvictim": 7887,
      "olph": 7888,
      "upid": 7889,
      "Ġwrought": 7890,
      "Ġnurs": 7891,
      "Ġbrigade": 7892,
      "Ġexpenses": 7893,
      "Ġcommonly": 7894,
      "Ġfeather": 7895,
      "inding": 7896,
      "ĠOrd": 7897,
      "resses": 7898,
      "iferous": 7899,
      "ĠSon": 7900,
      "Ġshri": 7901,
      "ICE": 7902,
      "Ġneglect": 7903,
      "Ġshells": 7904,
      "ĠHarold": 7905,
      "Ġtransport": 7906,
      "Ġthrowing": 7907,
      "plain": 7908,
      "Ġassigned": 7909,
      "Ġcontents": 7910,
      "Ġemployment": 7911,
      "ĠNear": 7912,
      "Ġours": 7913,
      "Ġren": 7914,
      "ĠArn": 7915,
      "aired": 7916,
      "Ġfruits": 7917,
      "irl": 7918,
      "Ġattempts": 7919,
      "ĠBoy": 7920,
      "Ġthither": 7921,
      "Ġtreacher": 7922,
      "Ġcig": 7923,
      "ĠAir": 7924,
      "ĠBeing": 7925,
      "cut": 7926,
      "ĠSac": 7927,
      "AH": 7928,
      "Ġinvestig": 7929,
      "Ġestimated": 7930,
      "Ġbush": 7931,
      "alo": 7932,
      "Ġbrass": 7933,
      "ĠDam": 7934,
      "Ġcovering": 7935,
      "ĠJesus": 7936,
      "Ġ111": 7937,
      "Ġreception": 7938,
      "ĠPE": 7939,
      "Ġprevailed": 7940,
      "Ġoffence": 7941,
      "Ġsubstant": 7942,
      "ranean": 7943,
      "ĠRichmond": 7944,
      "100": 7945,
      "ĠThird": 7946,
      "street": 7947,
      "worthy": 7948,
      "Ġstuff": 7949,
      "Ġrebu": 7950,
      "Ġtheatre": 7951,
      "Ġarts": 7952,
      "Ġagricultural": 7953,
      "58": 7954,
      "Ġtar": 7955,
      "...": 7956,
      "arded": 7957,
      "Ġpist": 7958,
      "Ġwidth": 7959,
      "Ġfurnish": 7960,
      "zo": 7961,
      "Ġhumanity": 7962,
      "Ġsupreme": 7963,
      "vert": 7964,
      "ĠFranklin": 7965,
      "Ġdeceased": 7966,
      "Ġtemples": 7967,
      "Ġburg": 7968,
      "hich": 7969,
      "Ġprincipally": 7970,
      "Ġmingled": 7971,
      "Ġnamely": 7972,
      "ĠPlace": 7973,
      "ĠThor": 7974,
      "Ġpapa": 7975,
      "Ġcapture": 7976,
      "ĠFox": 7977,
      "Ġbasin": 7978,
      "Ġlamp": 7979,
      "Ġsulph": 7980,
      "ĠKirk": 7981,
      "Ġconquest": 7982,
      "INGS": 7983,
      "Ġwarning": 7984,
      "oche": 7985,
      "vin": 7986,
      "car": 7987,
      "Ġgracious": 7988,
      "iency": 7989,
      "Ġbrand": 7990,
      "ĠStu": 7991,
      "ĠVi": 7992,
      "Ġretained": 7993,
      "Ġmanage": 7994,
      "Ġattracted": 7995,
      "Ġsorts": 7996,
      "rac": 7997,
      "case": 7998,
      "Ġbehalf": 7999,
      "Ġ1855": 8000,
      "Ġster": 8001,
      "Ġsecretary": 8002,
      "ĠKings": 8003,
      "Ġasp": 8004,
      "icular": 8005,
      "Ġundoubted": 8006,
      "je": 8007,
      "Ġinfant": 8008,
      "Ġcurtain": 8009,
      "Ġpond": 8010,
      "Ġlistening": 8011,
      "Ġ61": 8012,
      "ĠHER": 8013,
      "Ġannually": 8014,
      "Ġrepose": 8015,
      "Ġtorrent": 8016,
      "Ġedifice": 8017,
      "ĠUN": 8018,
      "Ġmoreover": 8019,
      "Ġsummoned": 8020,
      "Ġprivileges": 8021,
      "Ġfinds": 8022,
      "Ġoldest": 8023,
      "ĠÂ«": 8024,
      "Ġloves": 8025,
      "icut": 8026,
      "Ġconvent": 8027,
      "irie": 8028,
      "Ġcheap": 8029,
      "ĠGilbert": 8030,
      "ĠWITH": 8031,
      "Ġties": 8032,
      "Ġnob": 8033,
      "ĠBrad": 8034,
      "Ġamidst": 8035,
      "Ġcontest": 8036,
      "Ġstraw": 8037,
      "ĠTake": 8038,
      "Ġhurry": 8039,
      "VER": 8040,
      "Ġbeast": 8041,
      "ĠWed": 8042,
      "Ġdoubtful": 8043,
      "ĠAustria": 8044,
      "illes": 8045,
      "ĠPhiladel": 8046,
      "Ġnomin": 8047,
      "Ġtriump": 8048,
      "Ġhorrible": 8049,
      "ĠGerm": 8050,
      "Ġ99": 8051,
      "Ġachie": 8052,
      "Ġapplication": 8053,
      "Ġgrim": 8054,
      "Ġbegins": 8055,
      "Ġ400": 8056,
      "Ġassure": 8057,
      "Ġbelongs": 8058,
      "Ġguess": 8059,
      "ĠRoss": 8060,
      "Ġcontinu": 8061,
      "Ġ157": 8062,
      "Ġblessing": 8063,
      "Ġregiments": 8064,
      "ĠNathan": 8065,
      "Ġtext": 8066,
      "Ġdivisions": 8067,
      "Ġ1836": 8068,
      "Ġshake": 8069,
      "Ġintercourse": 8070,
      "Ġsym": 8071,
      "Ġoccasional": 8072,
      "Ġlament": 8073,
      "ersed": 8074,
      "ĠImper": 8075,
      "Ġminor": 8076,
      "just": 8077,
      "was": 8078,
      "ĠSun": 8079,
      "Ġchron": 8080,
      "ĠLiber": 8081,
      "Ġcathedral": 8082,
      "Ġ1860": 8083,
      "Ġprel": 8084,
      "ni": 8085,
      "Ġindividuals": 8086,
      "Ġje": 8087,
      "Ġnights": 8088,
      "Ġmonks": 8089,
      "Ġassisted": 8090,
      "Ġcharges": 8091,
      "ECT": 8092,
      "Ġsheet": 8093,
      "Ġprovision": 8094,
      "Ġcu": 8095,
      "Ġbloom": 8096,
      "Ġspecimen": 8097,
      "Ġintroduction": 8098,
      "ĠAny": 8099,
      "Ġgest": 8100,
      "Ġguest": 8101,
      "Ġowners": 8102,
      "scape": 8103,
      "Ġvisits": 8104,
      "Ġingen": 8105,
      "Ġanyone": 8106,
      "cientific": 8107,
      "cause": 8108,
      "Ġpurple": 8109,
      "ONT": 8110,
      "Ġmanagement": 8111,
      "Ġinquiry": 8112,
      "XX": 8113,
      "Ġneglected": 8114,
      "cas": 8115,
      "Ġseriously": 8116,
      "urst": 8117,
      "elled": 8118,
      "ĠBath": 8119,
      "Ġborder": 8120,
      "Ġwool": 8121,
      "Ġashamed": 8122,
      "ĠPeace": 8123,
      "ĠHerbert": 8124,
      "Ġseam": 8125,
      "Ġshone": 8126,
      "anda": 8127,
      "Ġpled": 8128,
      "Ġfeeble": 8129,
      "castle": 8130,
      "Ġquartz": 8131,
      ";\"": 8132,
      "ration": 8133,
      "Ġ1856": 8134,
      "ĠCOL": 8135,
      "ĠFree": 8136,
      "Ġ71": 8137,
      "Ġthirteen": 8138,
      "Ġmas": 8139,
      "Ġsurm": 8140,
      "ĠCampbell": 8141,
      "ĠUp": 8142,
      "Ġveins": 8143,
      "Ġquaint": 8144,
      "Ġresign": 8145,
      "Ġrolling": 8146,
      "Ġpuzz": 8147,
      "ĠEli": 8148,
      "Ġtight": 8149,
      "Ġembark": 8150,
      "Ġability": 8151,
      "onia": 8152,
      "Ġ1848": 8153,
      "Ch": 8154,
      "ioned": 8155,
      "ĠCarolina": 8156,
      "vious": 8157,
      "zes": 8158,
      "Ġapt": 8159,
      "ĠSometimes": 8160,
      "Ġ1857": 8161,
      "Ġerror": 8162,
      "Ġrules": 8163,
      "Ġquarrel": 8164,
      "Ġprivilege": 8165,
      "ping": 8166,
      "ĠReform": 8167,
      "Ġ1849": 8168,
      "Ġ130": 8169,
      "ART": 8170,
      "ĠHung": 8171,
      "Ġunse": 8172,
      "ĠMinister": 8173,
      "Ġtrif": 8174,
      "Ġain": 8175,
      "Ġnaked": 8176,
      "Ġamusement": 8177,
      "Ġpersec": 8178,
      "Ġenthusiasm": 8179,
      "ĠDire": 8180,
      "Ġprocession": 8181,
      "Ġbells": 8182,
      "ĠConstitution": 8183,
      "ĠWorks": 8184,
      "Ġtied": 8185,
      "Ġnervous": 8186,
      "ete": 8187,
      "Ġargument": 8188,
      "Ġsank": 8189,
      "war": 8190,
      "Ġentreat": 8191,
      "Ġbon": 8192,
      "mat": 8193,
      "ĠWere": 8194,
      "Ġinland": 8195,
      "Ġrespective": 8196,
      "Ġdrinking": 8197,
      "Ġcalculated": 8198,
      "Ġtemporary": 8199,
      "Ġneeds": 8200,
      "Ġrespond": 8201,
      "ĠLam": 8202,
      "Ġdeer": 8203,
      "Ġ1876": 8204,
      "Ġsang": 8205,
      "Ġstarting": 8206,
      "raction": 8207,
      "Ġnegot": 8208,
      "vity": 8209,
      "ĠJOHN": 8210,
      "Ġwondered": 8211,
      "ĠMun": 8212,
      "Oh": 8213,
      "Ġconceal": 8214,
      "Ġcarved": 8215,
      "Ġnest": 8216,
      "ĠSultan": 8217,
      "cr": 8218,
      "Ġcess": 8219,
      "Ġresort": 8220,
      "Ġgroups": 8221,
      "des": 8222,
      "Ġlordship": 8223,
      "ĠRow": 8224,
      "Ġsi": 8225,
      "Ġangle": 8226,
      "Ġtraced": 8227,
      "Ġboots": 8228,
      "Ġorganization": 8229,
      "Ġfuneral": 8230,
      "Ġsaint": 8231,
      "ĠRay": 8232,
      "ĠPL": 8233,
      "Ar": 8234,
      "Ġlaying": 8235,
      "bler": 8236,
      "pled": 8237,
      "Ġassociated": 8238,
      "Ġobservations": 8239,
      "Ġadopt": 8240,
      "Ġstrengthen": 8241,
      "Ġdiver": 8242,
      "Ġspeedily": 8243,
      "ĠFif": 8244,
      "Ġattained": 8245,
      "Ġeternal": 8246,
      "200": 8247,
      "ĠTal": 8248,
      "Ġfolly": 8249,
      "oting": 8250,
      "aging": 8251,
      "Ġcy": 8252,
      "ĠENGLAND": 8253,
      "Ġpeaceful": 8254,
      "itious": 8255,
      "Ġcables": 8256,
      "Ġinvari": 8257,
      "Ġnay": 8258,
      "ĠShould": 8259,
      ".),": 8260,
      "Ġpicked": 8261,
      "Ġpleasing": 8262,
      "ĠChristianity": 8263,
      "Ġhumour": 8264,
      "Ġtrop": 8265,
      "ĠJourn": 8266,
      "Ġshadows": 8267,
      "ĠLiver": 8268,
      "Ġshoes": 8269,
      "Ġdeclined": 8270,
      "Ġfeud": 8271,
      "Ġthereby": 8272,
      "ruption": 8273,
      "Ġmant": 8274,
      "Ġpolitics": 8275,
      "ieties": 8276,
      "ĠMonsieur": 8277,
      "ĠMir": 8278,
      "Ġcharity": 8279,
      "Ġvalued": 8280,
      "Ġwont": 8281,
      "Ġtha": 8282,
      "Ġfathers": 8283,
      "third": 8284,
      "Ġ81": 8285,
      "Ġbaron": 8286,
      "lem": 8287,
      "ĠSwe": 8288,
      "Ġimage": 8289,
      "ORE": 8290,
      "iot": 8291,
      "OUGH": 8292,
      "VI": 8293,
      "ĠPublic": 8294,
      "Ġdeposits": 8295,
      "ulating": 8296,
      "Ġastonished": 8297,
      "Ġobjection": 8298,
      "Ġpreparations": 8299,
      "ĠEdmund": 8300,
      "ĠEgyptian": 8301,
      "gre": 8302,
      "Ġdiscussion": 8303,
      "Ul": 8304,
      "hered": 8305,
      "Ġabandon": 8306,
      "Ġselect": 8307,
      "ĠEnglishman": 8308,
      "Ġcape": 8309,
      "Ġslavery": 8310,
      "Ġconviction": 8311,
      "ONS": 8312,
      "Ġ1872": 8313,
      "Ġings": 8314,
      "Ġdirty": 8315,
      "Ġ1852": 8316,
      "ĠBos": 8317,
      "ĠPrincess": 8318,
      "ĠCalifornia": 8319,
      "ĠWorld": 8320,
      "ĠNav": 8321,
      "Ġreports": 8322,
      "Ġapartment": 8323,
      "ients": 8324,
      "not": 8325,
      "ĠMoor": 8326,
      "Ġpalm": 8327,
      "ĠBob": 8328,
      "Ġsatisfactory": 8329,
      "Ġbust": 8330,
      "Ġ)": 8331,
      "ĠWithin": 8332,
      "ĠHast": 8333,
      "Ġbury": 8334,
      "Ġdestined": 8335,
      "istics": 8336,
      "ĠAdd": 8337,
      "Ġhostile": 8338,
      "Ġrevenge": 8339,
      "Ġstately": 8340,
      "Ġnort": 8341,
      "Ġastonishment": 8342,
      "oster": 8343,
      "ĠHudson": 8344,
      "Ġ83": 8345,
      "Ġresident": 8346,
      "Ġstepped": 8347,
      "Ġstartled": 8348,
      "55": 8349,
      "Ġpronounced": 8350,
      "Ġprize": 8351,
      "Ġ1866": 8352,
      "utive": 8353,
      "akers": 8354,
      "ĠDouglas": 8355,
      "ĠPalace": 8356,
      "Ġmankind": 8357,
      "ĠRO": 8358,
      "ĠIsrael": 8359,
      "Ġhelpless": 8360,
      "tic": 8361,
      "Ġshell": 8362,
      "zie": 8363,
      "Ġ140": 8364,
      "Ġgenu": 8365,
      "Ġincome": 8366,
      "Ġpreferred": 8367,
      "Ġbonn": 8368,
      "ĠAlso": 8369,
      "Ġsadly": 8370,
      "Ġmillion": 8371,
      "Ġacid": 8372,
      "Ġbowed": 8373,
      "Ġfury": 8374,
      "ĠLoch": 8375,
      "Ġinhabited": 8376,
      "phy": 8377,
      "ĠSpir": 8378,
      "Ġphr": 8379,
      "In": 8380,
      "Ġmeetings": 8381,
      "ĠOli": 8382,
      "ki": 8383,
      "fare": 8384,
      "Ġ1875": 8385,
      "ĠIng": 8386,
      "Ġelements": 8387,
      "Ġvicar": 8388,
      "ATIONS": 8389,
      "Ġlieutenant": 8390,
      "Ġvine": 8391,
      "ĠMaur": 8392,
      "aping": 8393,
      "rets": 8394,
      "Ġexists": 8395,
      "ĠAvill": 8396,
      "Ġdaring": 8397,
      "ĠSomer": 8398,
      "Ġstatue": 8399,
      "Ġinval": 8400,
      "Ġsettlements": 8401,
      "Ġvault": 8402,
      "Ġreasonable": 8403,
      "Ġwaist": 8404,
      "Ġrebellion": 8405,
      "Ġvenge": 8406,
      "Ġadvancing": 8407,
      "Ġdischarged": 8408,
      "Ġprocured": 8409,
      "Ġlively": 8410,
      "Ġadapted": 8411,
      "ĠJim": 8412,
      "Ġlawyer": 8413,
      "ĠAvhere": 8414,
      "Ġbade": 8415,
      "ĠCertain": 8416,
      "Ġ1853": 8417,
      "zer": 8418,
      "ints": 8419,
      "ĠPage": 8420,
      "Ġsout": 8421,
      "Ġdeeper": 8422,
      "Ġheirs": 8423,
      "Ġhorizon": 8424,
      "Ġknife": 8425,
      "Ġdisappointed": 8426,
      "Ġtoil": 8427,
      "ĠClar": 8428,
      "Ġrat": 8429,
      "Ġromantic": 8430,
      "Ġbands": 8431,
      "Ġparl": 8432,
      "Ġleather": 8433,
      "Ġacknowledged": 8434,
      "Ġfanci": 8435,
      "chard": 8436,
      "Ġcomr": 8437,
      "PH": 8438,
      "ĠDavis": 8439,
      "ano": 8440,
      "ĠAber": 8441,
      "itty": 8442,
      "Ġcease": 8443,
      "Ġyearly": 8444,
      "Ġagony": 8445,
      "rington": 8446,
      "icles": 8447,
      "Ġencoun": 8448,
      "inks": 8449,
      "Ġindifferent": 8450,
      "Ġflu": 8451,
      "Ġseal": 8452,
      "Ġreturns": 8453,
      "ĠCould": 8454,
      "rol": 8455,
      "Ġmassive": 8456,
      "vant": 8457,
      "Ġrice": 8458,
      "Ġ1841": 8459,
      "Ġreaders": 8460,
      "Ġreflect": 8461,
      "Ġdecay": 8462,
      "folk": 8463,
      "Ġconsequences": 8464,
      "Ġsanct": 8465,
      "thel": 8466,
      "Ġthrong": 8467,
      "Ġhastened": 8468,
      "nces": 8469,
      "orne": 8470,
      "pert": 8471,
      "Ġbarren": 8472,
      "Ġting": 8473,
      "Ġ149": 8474,
      "Ġwb": 8475,
      "ĠtA": 8476,
      "Ġaug": 8477,
      "ĠNile": 8478,
      "Ġrecollect": 8479,
      "Ġyielded": 8480,
      "Ġalle": 8481,
      "Ġyer": 8482,
      "Ġeminent": 8483,
      "Ġwherever": 8484,
      "Ġbeheld": 8485,
      "ĠUl": 8486,
      "Ġregarding": 8487,
      "Ġ1877": 8488,
      "ĠCec": 8489,
      "Ġplun": 8490,
      "ghter": 8491,
      "bered": 8492,
      "umm": 8493,
      "Ġdangers": 8494,
      "Ġtravelled": 8495,
      "ularly": 8496,
      "Ġfain": 8497,
      "Ġenjoyment": 8498,
      "Ġintelligent": 8499,
      "ĠCÃ¦sar": 8500,
      "Ġsep": 8501,
      "Ġprosec": 8502,
      "Ġseverely": 8503,
      "ĠSay": 8504,
      "andy": 8505,
      "ĠNorm": 8506,
      "Ġwitnessed": 8507,
      "Ġcrowned": 8508,
      "Ġ1851": 8509,
      "ĠGlasgow": 8510,
      "ĠDa": 8511,
      "Ġwandering": 8512,
      "Ġsider": 8513,
      "Ġcave": 8514,
      "anny": 8515,
      "Ġhaven": 8516,
      "Ġformidable": 8517,
      "Ġborough": 8518,
      "ĠArabs": 8519,
      "ĠSquare": 8520,
      "Ġ1880": 8521,
      "ĠOLD": 8522,
      "Ġbrethren": 8523,
      "ĠPhiladelphia": 8524,
      "Ġmedical": 8525,
      "ĠOffice": 8526,
      "sy": 8527,
      "unch": 8528,
      "ĠEarly": 8529,
      "Ġsway": 8530,
      "Ġexchange": 8531,
      "Ġartific": 8532,
      "Ġmining": 8533,
      "Ġpool": 8534,
      "ĠSud": 8535,
      "Ġslopes": 8536,
      "blance": 8537,
      "Ġdans": 8538,
      "Ġfran": 8539,
      "ĠTa": 8540,
      "MENT": 8541,
      "gels": 8542,
      "Ġbattery": 8543,
      "Ġnotion": 8544,
      "OUND": 8545,
      "fulness": 8546,
      "ĠBir": 8547,
      "Ġsources": 8548,
      "stead": 8549,
      "Ġcontinually": 8550,
      "Ġconsidering": 8551,
      "Ġcivilization": 8552,
      "Ġarist": 8553,
      "aws": 8554,
      "Ġirrit": 8555,
      "Ġ158": 8556,
      "Ġinvol": 8557,
      "ĠMoore": 8558,
      "ansas": 8559,
      "outs": 8560,
      "ĠdoAvn": 8561,
      "ĠAdams": 8562,
      "Ġduly": 8563,
      "Ġpreserve": 8564,
      "ĠHosp": 8565,
      "Ġfancied": 8566,
      "Ġpowder": 8567,
      "Ġ129": 8568,
      "Ġforbid": 8569,
      "ĠSimon": 8570,
      "ĠBour": 8571,
      "Ġstayed": 8572,
      "Ġbottle": 8573,
      "athan": 8574,
      "Ġ72": 8575,
      "Ġafterward": 8576,
      "Ġxv": 8577,
      "Ġnarrative": 8578,
      "APH": 8579,
      "Ġlimbs": 8580,
      "Ġconvention": 8581,
      "ĠWithout": 8582,
      "Ġlion": 8583,
      "Ġous": 8584,
      "Ġdiameter": 8585,
      "ographical": 8586,
      "ĠCHAR": 8587,
      "Ġabol": 8588,
      "BUR": 8589,
      "Ġjudges": 8590,
      "bow": 8591,
      "AMP": 8592,
      "Ġdetermination": 8593,
      "Ġ<": 8594,
      "Ġsuccessor": 8595,
      "Ġcoo": 8596,
      "Ġposed": 8597,
      "ĠTar": 8598,
      "Ġ1871": 8599,
      "three": 8600,
      "Ġcountrymen": 8601,
      "Ġbegged": 8602,
      "IVE": 8603,
      "Ġsteadily": 8604,
      "He": 8605,
      "77": 8606,
      "Ġlane": 8607,
      "Ġmurdered": 8608,
      "Ġ88": 8609,
      "Ġnois": 8610,
      "orney": 8611,
      "Ġsunset": 8612,
      "**": 8613,
      "ogs": 8614,
      "ĠCre": 8615,
      "iveness": 8616,
      "ĠRight": 8617,
      "Ġendeavoured": 8618,
      "Ġ1874": 8619,
      "Ġ1873": 8620,
      "Ġflung": 8621,
      "Ġbuoy": 8622,
      "Ġmutual": 8623,
      "iger": 8624,
      "Ġhonourable": 8625,
      "Ġlust": 8626,
      "Ġtents": 8627,
      "Ġgathering": 8628,
      "ĠOliver": 8629,
      "Ġpossessions": 8630,
      "Ġaloud": 8631,
      "ILD": 8632,
      "ental": 8633,
      "Ġ125": 8634,
      "Ġgrandfather": 8635,
      "Ġcareless": 8636,
      "Ġfarewell": 8637,
      "ĠHug": 8638,
      "ĠKen": 8639,
      "Ġrugged": 8640,
      "Ġparting": 8641,
      "ĠLOV": 8642,
      "Ġwedding": 8643,
      "Ġsounded": 8644,
      "acted": 8645,
      "Ġmate": 8646,
      "inety": 8647,
      "ĠVicar": 8648,
      "Ġinsisted": 8649,
      "ĠIsle": 8650,
      "Ġwrites": 8651,
      "ĠChicago": 8652,
      "vous": 8653,
      "Ġbond": 8654,
      "ĠMountains": 8655,
      "Ġdemonstr": 8656,
      "ĠArchbishop": 8657,
      "eration": 8658,
      "Ġdeveloped": 8659,
      "Ġroused": 8660,
      "alty": 8661,
      "hile": 8662,
      "enna": 8663,
      "ĠweU": 8664,
      "Ġmamma": 8665,
      "Ġsuspected": 8666,
      "Ġknock": 8667,
      "Ġvir": 8668,
      "keeper": 8669,
      "ocratic": 8670,
      "Ġantiquity": 8671,
      "ayne": 8672,
      "Ġdining": 8673,
      "Ġ74": 8674,
      "Ġprofess": 8675,
      "Ġshouted": 8676,
      "ĠCook": 8677,
      "rers": 8678,
      "ANS": 8679,
      "zing": 8680,
      "ISC": 8681,
      "anned": 8682,
      "Ġearnestly": 8683,
      "apers": 8684,
      "Ġerection": 8685,
      "ĠNic": 8686,
      "Ġwinding": 8687,
      "Ġalarmed": 8688,
      "Ġ105": 8689,
      "ties": 8690,
      "Ġlock": 8691,
      "Ġpreparing": 8692,
      "Ġplatform": 8693,
      "ERAL": 8694,
      "Ġconverted": 8695,
      "ushes": 8696,
      "uming": 8697,
      "leans": 8698,
      "Ġunre": 8699,
      "Ġ1878": 8700,
      "ĠKn": 8701,
      "Ġwarrant": 8702,
      "Ġports": 8703,
      "Ġcrops": 8704,
      "Ġarrested": 8705,
      "Ġdisag": 8706,
      "Ġmills": 8707,
      "Ġbapt": 8708,
      "orum": 8709,
      "oli": 8710,
      "Ġinev": 8711,
      "ilian": 8712,
      "Ġlowest": 8713,
      "Ġprotest": 8714,
      "Ġcritic": 8715,
      "ĠUncle": 8716,
      "Ġthirst": 8717,
      "Ġclothing": 8718,
      "Ġ1846": 8719,
      "Ġprepare": 8720,
      "uese": 8721,
      "terior": 8722,
      "31": 8723,
      "Ġmischief": 8724,
      "Ġscant": 8725,
      "Ġabode": 8726,
      "ĠMu": 8727,
      "ervation": 8728,
      "Ġcert": 8729,
      "Ġtick": 8730,
      "icken": 8731,
      "ĠKat": 8732,
      "ĠPeople": 8733,
      "Ġflatter": 8734,
      "ANG": 8735,
      "Ġunple": 8736,
      "Ġdischarge": 8737,
      "Ġweigh": 8738,
      "ĠWhether": 8739,
      "Ġpin": 8740,
      "Ġsandstone": 8741,
      "Ġrebels": 8742,
      "ĠDean": 8743,
      "ĠMethod": 8744,
      "hi": 8745,
      "chess": 8746,
      "Ġturb": 8747,
      "Ġ97": 8748,
      "Ġfarmers": 8749,
      "Ġsailing": 8750,
      "Ġgets": 8751,
      "Ġwashed": 8752,
      "ĠAnthony": 8753,
      "ĠPhill": 8754,
      "ĠBeau": 8755,
      "ĠGos": 8756,
      "ĠImperial": 8757,
      "ĠAfrican": 8758,
      "Ġgrows": 8759,
      "KE": 8760,
      "time": 8761,
      "Ġparticulars": 8762,
      "andal": 8763,
      "Ġ1835": 8764,
      "ĠAB": 8765,
      "ouch": 8766,
      "Ġmock": 8767,
      "Ġ64": 8768,
      "Ġblast": 8769,
      "Ġrestless": 8770,
      "hampton": 8771,
      "ĠWestminster": 8772,
      "Ġrequis": 8773,
      "Ġlearnt": 8774,
      "Ġprey": 8775,
      "Ġmilitia": 8776,
      "Ġunderstanding": 8777,
      "Ġdreary": 8778,
      "Ġtranqu": 8779,
      "iration": 8780,
      "Ġindignation": 8781,
      "ONDON": 8782,
      "Ġmachinery": 8783,
      "ĠHIS": 8784,
      "Ġdiscont": 8785,
      "Ġnecessarily": 8786,
      "hs": 8787,
      "Ġresigned": 8788,
      "RA": 8789,
      "Ġinvasion": 8790,
      "Ġreserve": 8791,
      "Ġ66": 8792,
      "Ġinflict": 8793,
      "roll": 8794,
      "ĠBol": 8795,
      "Ġarches": 8796,
      "ilda": 8797,
      "Ġpains": 8798,
      "Ġancestors": 8799,
      "ĠGuy": 8800,
      "Ġactions": 8801,
      "istered": 8802,
      "Ġimperial": 8803,
      "encies": 8804,
      "Ġdeadly": 8805,
      "Ġarchitecture": 8806,
      "Ġ1830": 8807,
      "Ġoffering": 8808,
      "bourne": 8809,
      "Ġ1868": 8810,
      "Ġaudience": 8811,
      "acks": 8812,
      "Ġspared": 8813,
      "aton": 8814,
      "Ġdearest": 8815,
      "Ġmultitude": 8816,
      "ĠCornwall": 8817,
      "Ġdiscipline": 8818,
      "Ġram": 8819,
      "acc": 8820,
      "ĠRhod": 8821,
      "ĠAnna": 8822,
      "Ġsensible": 8823,
      "Ġdenied": 8824,
      "ĠGray": 8825,
      "But": 8826,
      "Ġknee": 8827,
      "Ġinvitation": 8828,
      "ĠCambridge": 8829,
      "ĠCommissioners": 8830,
      "ĠAlfred": 8831,
      "Ġfifth": 8832,
      "Ġgallery": 8833,
      "ĠED": 8834,
      "ĠCatherine": 8835,
      "Ġsquad": 8836,
      "ĠChamber": 8837,
      "Ġrounded": 8838,
      "smith": 8839,
      "ĠComp": 8840,
      "Ġrays": 8841,
      "Ġalas": 8842,
      "you": 8843,
      "Ġate": 8844,
      "inations": 8845,
      "ĠPray": 8846,
      "Ġhaz": 8847,
      "Ġterrif": 8848,
      "forth": 8849,
      "Ġillness": 8850,
      "Ġelephant": 8851,
      "tes": 8852,
      "Ġwhist": 8853,
      "Ġlent": 8854,
      "Ġvolumes": 8855,
      "We": 8856,
      "Ġwoe": 8857,
      "Ġthickness": 8858,
      "Ġthread": 8859,
      "Ġmurmured": 8860,
      "legraph": 8861,
      "acre": 8862,
      "Ġproprietor": 8863,
      "onsense": 8864,
      "Ġcraft": 8865,
      "Ġ1867": 8866,
      "ĠSquire": 8867,
      "ands": 8868,
      "Ġriv": 8869,
      "berts": 8870,
      "ĠGeoff": 8871,
      "Ġcham": 8872,
      "Ġgazing": 8873,
      "Ġrecommend": 8874,
      "Ġconj": 8875,
      "Ġtyran": 8876,
      "oA": 8877,
      "Ġcapit": 8878,
      "Ġglanced": 8879,
      "ĠCromwell": 8880,
      "Ġreserved": 8881,
      "ĠAvell": 8882,
      "Ġgenuine": 8883,
      "kee": 8884,
      "ĠPeters": 8885,
      "ĠMS": 8886,
      "ffic": 8887,
      "Ġcongregation": 8888,
      "Ġbuff": 8889,
      "*.": 8890,
      "ĠMack": 8891,
      "Ġpassages": 8892,
      "Ġadjacent": 8893,
      "ixture": 8894,
      "ĠMeanwhile": 8895,
      "Ġvale": 8896,
      "Ġwarriors": 8897,
      "ĠCow": 8898,
      "Ġfeed": 8899,
      "Ue": 8900,
      "Ġdraught": 8901,
      "Ġsaddle": 8902,
      "Ġbloss": 8903,
      "Ġannum": 8904,
      "Ġsongs": 8905,
      "ĠRussians": 8906,
      "Ġrenewed": 8907,
      "Ġclust": 8908,
      "ĠFrid": 8909,
      "gon": 8910,
      "grat": 8911,
      "Ġtermed": 8912,
      "ĠIT": 8913,
      "Ġfoll": 8914,
      "Ġconcent": 8915,
      "Ġseeking": 8916,
      "Ġimmort": 8917,
      "URES": 8918,
      "idences": 8919,
      "ĠStanley": 8920,
      "Ġtlie": 8921,
      "Ġassume": 8922,
      "Ġadmirable": 8923,
      "Ġashes": 8924,
      "ĠÂ»": 8925,
      "Ġsubmit": 8926,
      "Ġtherein": 8927,
      "Ġ1845": 8928,
      "Ġsubl": 8929,
      "izes": 8930,
      "assed": 8931,
      "ĠBri": 8932,
      "ĠForest": 8933,
      "ĠBecause": 8934,
      "Ġtribut": 8935,
      "Ġbadly": 8936,
      "Ġnaval": 8937,
      "Ġwalks": 8938,
      "Ġ1838": 8939,
      "Ġprotected": 8940,
      "Ġpion": 8941,
      "Ġvivid": 8942,
      "ĠRod": 8943,
      "agle": 8944,
      "ĠGoth": 8945,
      "Ġtestimony": 8946,
      "Ġamused": 8947,
      "Ġbeasts": 8948,
      "dney": 8949,
      "ĠCe": 8950,
      "ĠOcean": 8951,
      "Ġpreacher": 8952,
      "ĠProp": 8953,
      "Ġ1858": 8954,
      "Ġscientific": 8955,
      "ulations": 8956,
      "ĠTham": 8957,
      "Ġdeposited": 8958,
      "Ġ1847": 8959,
      "ĠAllen": 8960,
      "Ġcontact": 8961,
      "Ġvon": 8962,
      "Ġtables": 8963,
      "ani": 8964,
      "ĠRuth": 8965,
      "Ġvoted": 8966,
      "Ġsets": 8967,
      "Ġregards": 8968,
      "Ġnavigation": 8969,
      "Ġted": 8970,
      "Ġcrimson": 8971,
      "ĠProvidence": 8972,
      "bec": 8973,
      "Ġteaching": 8974,
      "Ġlandscape": 8975,
      "Ġ109": 8976,
      "Ġindicated": 8977,
      "ĠPly": 8978,
      "ĠJapanese": 8979,
      "Ġence": 8980,
      "Ġapprehens": 8981,
      "Ġdeny": 8982,
      "Ġ1869": 8983,
      "ĠWarren": 8984,
      "Ġwealthy": 8985,
      "Ġinstruction": 8986,
      "Ġgrandeur": 8987,
      "Ġstupid": 8988,
      "imer": 8989,
      "ĠKentucky": 8990,
      "Ġreflection": 8991,
      "anchester": 8992,
      "Ġnewly": 8993,
      "Ġattitude": 8994,
      "Ġactivity": 8995,
      "ĠGlen": 8996,
      "Ġconquered": 8997,
      "Ġcrest": 8998,
      "Ġrequires": 8999,
      "Ġdegr": 9000,
      "Ġdesigned": 9001,
      "Ġsuspect": 9002,
      "Ġascended": 9003,
      "she": 9004,
      "ĠWild": 9005,
      "ĠNOT": 9006,
      "Ġrisen": 9007,
      "Ġmarvell": 9008,
      "Ġdrunk": 9009,
      "ĠConnect": 9010,
      "Ġdisappointment": 9011,
      "itating": 9012,
      "Ġdoub": 9013,
      "Uy": 9014,
      "ĠJersey": 9015,
      "ridge": 9016,
      "Ġtoss": 9017,
      "ĠLAND": 9018,
      "Ġdescendants": 9019,
      "Ġtimid": 9020,
      "An": 9021,
      "Ġomn": 9022,
      "Ued": 9023,
      "Ġedition": 9024,
      "wl": 9025,
      "Ġ1879": 9026,
      "ĠGa": 9027,
      "Ġanybody": 9028,
      "din": 9029,
      "Ġwha": 9030,
      "OUSE": 9031,
      "ĠClay": 9032,
      "Ġchase": 9033,
      "Ġburial": 9034,
      "ĠPatrick": 9035,
      "ĠPortuguese": 9036,
      "Ġfab": 9037,
      "Ġfloating": 9038,
      "Ġjurisd": 9039,
      "ĠFam": 9040,
      "gly": 9041,
      "Ġstrain": 9042,
      "Ġgeneration": 9043,
      "Ġscra": 9044,
      "Ġleaning": 9045,
      "lla": 9046,
      "gus": 9047,
      "headed": 9048,
      "ĠOrleans": 9049,
      "Ġgravel": 9050,
      "rage": 9051,
      "Ġclock": 9052,
      "Ġcitizen": 9053,
      "Ġenclosed": 9054,
      "ĠGovern": 9055,
      "Ġsavages": 9056,
      "Ġhopeless": 9057,
      "ĠCecil": 9058,
      "Ġvengeance": 9059,
      "oser": 9060,
      "ĠMR": 9061,
      "Ġstudied": 9062,
      "ĠAMER": 9063,
      "Ġsomewhere": 9064,
      "Ġfrost": 9065,
      "ĠWelsh": 9066,
      "Ġessential": 9067,
      "agne": 9068,
      "Ġportrait": 9069,
      "Ġconfident": 9070,
      "ĠThank": 9071,
      "ĠMurray": 9072,
      "ĠFed": 9073,
      "Ġjunction": 9074,
      "usions": 9075,
      "ADY": 9076,
      "Ġtrip": 9077,
      "Ġ62": 9078,
      "Ġglit": 9079,
      "Ġfasc": 9080,
      "Ġprocure": 9081,
      "Ġobedience": 9082,
      "Ġvisiting": 9083,
      "ĠAthens": 9084,
      "ĠTerrit": 9085,
      "ĠNE": 9086,
      "Ġascent": 9087,
      "elf": 9088,
      "Ġholid": 9089,
      "ĠAlbert": 9090,
      "Ġborrow": 9091,
      "Ġ1839": 9092,
      "Ġsolution": 9093,
      "Ġrecall": 9094,
      "Ġwander": 9095,
      "ĠImp": 9096,
      "Ġtended": 9097,
      "Ġvii": 9098,
      "Ġfarming": 9099,
      "Ġshallow": 9100,
      "ĠAMERIC": 9101,
      "Ġhealthy": 9102,
      "Ġwooded": 9103,
      "Ġswall": 9104,
      "going": 9105,
      "Ġsailors": 9106,
      "Ġrepresentative": 9107,
      "Ġ250": 9108,
      "Ġrect": 9109,
      "ĠSupp": 9110,
      "Ġwrath": 9111,
      "ICH": 9112,
      "Ġengra": 9113,
      "TY": 9114,
      "ONE": 9115,
      "Ġ{": 9116,
      "Ġcommencement": 9117,
      "sing": 9118,
      "lement": 9119,
      "Ġcomposition": 9120,
      "Ġfortunes": 9121,
      "inople": 9122,
      "ĠFel": 9123,
      "Ġcharms": 9124,
      "ĠMarquis": 9125,
      "tr": 9126,
      "Ġcircular": 9127,
      "ban": 9128,
      "ĠLion": 9129,
      "Ġphen": 9130,
      "ĠPra": 9131,
      "adise": 9132,
      "Ġprior": 9133,
      "herly": 9134,
      "ader": 9135,
      "Ġapply": 9136,
      "Ġendure": 9137,
      "Ġventured": 9138,
      "lk": 9139,
      "ĠXIV": 9140,
      "iere": 9141,
      "Ġcrying": 9142,
      "gain": 9143,
      "Ġauth": 9144,
      "Ġexamine": 9145,
      "Ġanywhere": 9146,
      "Ġcondemned": 9147,
      "Ġjealousy": 9148,
      "Ġgilt": 9149,
      "rection": 9150,
      "ĠClerk": 9151,
      "athed": 9152,
      "Ġlasted": 9153,
      "nels": 9154,
      "Ġcarriages": 9155,
      "Ġsubstance": 9156,
      "mun": 9157,
      "ademy": 9158,
      "Ġwages": 9159,
      "Ġfiring": 9160,
      "Ġfaire": 9161,
      "Ġluxury": 9162,
      "Ġledge": 9163,
      "SON": 9164,
      "ĠEnd": 9165,
      "Ġ1842": 9166,
      "ĠSanta": 9167,
      "ĠMA": 9168,
      "Ġsuspended": 9169,
      "ĠGraham": 9170,
      "Ġtroop": 9171,
      "Ġpatent": 9172,
      "Ġexcurs": 9173,
      "occ": 9174,
      "Ġplough": 9175,
      "ĠLONDON": 9176,
      "Ġflew": 9177,
      "Ġfootst": 9178,
      "Ġdaylight": 9179,
      "iÃ¦": 9180,
      "Ġperceive": 9181,
      "aders": 9182,
      "ĠTurkey": 9183,
      "Ġdoctrine": 9184,
      "icating": 9185,
      "Ġwilderness": 9186,
      "ĠMatthew": 9187,
      "Ġcomparison": 9188,
      "Ġhyp": 9189,
      "Ġ145": 9190,
      "ĠAbra": 9191,
      "ĠSic": 9192,
      "Ġremoval": 9193,
      "Ġbeaten": 9194,
      "IAM": 9195,
      "uity": 9196,
      "Ġjack": 9197,
      "Ġtd": 9198,
      "Ġfoul": 9199,
      "Ġroses": 9200,
      "Ġvegetation": 9201,
      "Ġroar": 9202,
      "Ġ115": 9203,
      "Ġmoist": 9204,
      "ĠCountess": 9205,
      "Ġ93": 9206,
      "boat": 9207,
      "Ġgross": 9208,
      "Ġvigorous": 9209,
      "ĠCare": 9210,
      "Ġbestowed": 9211,
      "Ġsenses": 9212,
      "osity": 9213,
      "Ġregularly": 9214,
      "Ġdetail": 9215,
      "Ġlightly": 9216,
      "Ġdistrib": 9217,
      "Ġmemorial": 9218,
      "ĠSydney": 9219,
      "Ġtenant": 9220,
      "ĠStew": 9221,
      "Ġmail": 9222,
      "icians": 9223,
      "Ġ135": 9224,
      "Ġpersuaded": 9225,
      "CHES": 9226,
      "AIR": 9227,
      "Ġconsol": 9228,
      "Ġoutward": 9229,
      "Ġperse": 9230,
      "Ġsomehow": 9231,
      "Ġawak": 9232,
      "ENDIX": 9233,
      "Ġstrictly": 9234,
      "Ġinse": 9235,
      "racy": 9236,
      "ANC": 9237,
      "Ġdelic": 9238,
      "Ġsustained": 9239,
      "oi": 9240,
      "Ġarise": 9241,
      "Ġwondering": 9242,
      "oof": 9243,
      "Ġpointing": 9244,
      "Ġchant": 9245,
      "ighted": 9246,
      "76": 9247,
      "Ġfel": 9248,
      "Ġ1859": 9249,
      "Ġoverw": 9250,
      "ĠTex": 9251,
      "inus": 9252,
      "Ġdemands": 9253,
      "Ġascertained": 9254,
      "hab": 9255,
      "ĠZeal": 9256,
      "Ġshooting": 9257,
      "Ġmob": 9258,
      "Ġadorned": 9259,
      "See": 9260,
      "aneous": 9261,
      "Ġrebel": 9262,
      "ĠNar": 9263,
      "Ġaffords": 9264,
      "ĠRailway": 9265,
      "ĠtAvo": 9266,
      "pers": 9267,
      "ĠBi": 9268,
      "ICK": 9269,
      "Ġglow": 9270,
      "ĠMoses": 9271,
      "Ġcove": 9272,
      "Ġmeantime": 9273,
      "Ġjustly": 9274,
      "Ġwhereas": 9275,
      "ĠPH": 9276,
      "Ġcoward": 9277,
      "Ġnom": 9278,
      "ĠBeng": 9279,
      "Ġ76": 9280,
      "ipes": 9281,
      "Ġscr": 9282,
      "hol": 9283,
      "Ġobtaining": 9284,
      "ĠXL": 9285,
      "Ġeating": 9286,
      "Ġ91": 9287,
      "Ġrepeat": 9288,
      "Ġloaded": 9289,
      "illiam": 9290,
      "ĠLiverpool": 9291,
      "Ġrifle": 9292,
      "Ġinjury": 9293,
      "ucc": 9294,
      "Ġborders": 9295,
      "Ġtrusted": 9296,
[...]
